#include "magic_wand_model_data.h"


// We need to keep the data array aligned on some architectures.

#ifdef __has_attribute

#define HAVE_ATTRIBUTE(x) __has_attribute(x)

#else

#define HAVE_ATTRIBUTE(x) 0

#endif

#if HAVE_ATTRIBUTE(aligned) || (defined(__GNUC__) && !defined(__clang__))

#define DATA_ALIGN_ATTRIBUTE __attribute__((aligned(4)))

#else

#define DATA_ALIGN_ATTRIBUTE

#endif


const unsigned char g_magic_wand_model_data[] DATA_ALIGN_ATTRIBUTE = {

  // Paste the data of the char array in `src/model.cc` here
  0x08, 0x00, 0x00, 0x00, 0x54, 0x46, 0x4c, 0x33, 0x62, 0xff, 0xff, 0xff,
  0x03, 0x00, 0x00, 0x00, 0x10, 0x00, 0x00, 0x00, 0x24, 0x00, 0x00, 0x00,
  0x78, 0x00, 0x00, 0x00, 0x24, 0x00, 0x00, 0x00, 0x05, 0x00, 0x00, 0x00,
  0x78, 0x05, 0x00, 0x00, 0xb0, 0x04, 0x00, 0x00, 0xe0, 0x02, 0x00, 0x00,
  0x60, 0x02, 0x00, 0x00, 0x54, 0x01, 0x00, 0x00, 0x01, 0x00, 0x00, 0x00,
  0x78, 0x00, 0x00, 0x00, 0x13, 0x00, 0x00, 0x00, 0x18, 0x30, 0x00, 0x00,
  0x14, 0x30, 0x00, 0x00, 0x20, 0x2f, 0x00, 0x00, 0xa8, 0x2e, 0x00, 0x00,
  0x3c, 0x2e, 0x00, 0x00, 0xec, 0x11, 0x00, 0x00, 0x98, 0x10, 0x00, 0x00,
  0xbc, 0x0e, 0x00, 0x00, 0x60, 0x06, 0x00, 0x00, 0xfc, 0x05, 0x00, 0x00,
  0x78, 0x05, 0x00, 0x00, 0xec, 0x2f, 0x00, 0x00, 0xe8, 0x2f, 0x00, 0x00,
  0xe4, 0x2f, 0x00, 0x00, 0xe0, 0x2f, 0x00, 0x00, 0xdc, 0x2f, 0x00, 0x00,
  0xd8, 0x2f, 0x00, 0x00, 0xd4, 0x2f, 0x00, 0x00, 0xd0, 0x2f, 0x00, 0x00,
  0x0f, 0x00, 0x00, 0x00, 0x4d, 0x4c, 0x49, 0x52, 0x20, 0x43, 0x6f, 0x6e,
  0x76, 0x65, 0x72, 0x74, 0x65, 0x64, 0x2e, 0x00, 0x00, 0x00, 0x0e, 0x00,
  0x18, 0x00, 0x04, 0x00, 0x08, 0x00, 0x0c, 0x00, 0x10, 0x00, 0x14, 0x00,
  0x0e, 0x00, 0x00, 0x00, 0x14, 0x00, 0x00, 0x00, 0x5c, 0x00, 0x00, 0x00,
  0x60, 0x00, 0x00, 0x00, 0x64, 0x00, 0x00, 0x00, 0x84, 0x00, 0x00, 0x00,
  0x12, 0x00, 0x00, 0x00, 0x48, 0x2f, 0x00, 0x00, 0xe4, 0x2e, 0x00, 0x00,
  0x3c, 0x2e, 0x00, 0x00, 0xd8, 0x2d, 0x00, 0x00, 0x70, 0x2d, 0x00, 0x00,
  0x1c, 0x11, 0x00, 0x00, 0xc0, 0x0f, 0x00, 0x00, 0xe4, 0x0d, 0x00, 0x00,
  0xa0, 0x05, 0x00, 0x00, 0x3c, 0x05, 0x00, 0x00, 0xb0, 0x04, 0x00, 0x00,
  0xe8, 0x03, 0x00, 0x00, 0x38, 0x03, 0x00, 0x00, 0xa4, 0x02, 0x00, 0x00,
  0x10, 0x02, 0x00, 0x00, 0x90, 0x01, 0x00, 0x00, 0xfc, 0x00, 0x00, 0x00,
  0x80, 0x00, 0x00, 0x00, 0x01, 0x00, 0x00, 0x00, 0x00, 0x00, 0x00, 0x00,
  0x01, 0x00, 0x00, 0x00, 0x11, 0x00, 0x00, 0x00, 0x08, 0x00, 0x00, 0x00,
  0x1c, 0x04, 0x00, 0x00, 0x58, 0x03, 0x00, 0x00, 0xc8, 0x02, 0x00, 0x00,
  0x24, 0x02, 0x00, 0x00, 0xac, 0x01, 0x00, 0x00, 0x10, 0x01, 0x00, 0x00,
  0x94, 0x00, 0x00, 0x00, 0x10, 0x00, 0x00, 0x00, 0x04, 0x00, 0x00, 0x00,
  0x6d, 0x61, 0x69, 0x6e, 0x00, 0x00, 0x00, 0x00, 0x8e, 0xff, 0xff, 0xff,
  0x00, 0x00, 0x00, 0x09, 0x04, 0x00, 0x00, 0x00, 0x1c, 0x00, 0x00, 0x00,
  0x10, 0x00, 0x00, 0x00, 0x04, 0x00, 0x00, 0x00, 0x0a, 0xd2, 0xff, 0xff,
  0x00, 0x00, 0x80, 0x3f, 0x01, 0x00, 0x00, 0x00, 0x11, 0x00, 0x00, 0x00,
  0x01, 0x00, 0x00, 0x00, 0x10, 0x00, 0x00, 0x00, 0xf6, 0xfb, 0xff, 0xff,
  0x00, 0x00, 0x00, 0x19, 0x01, 0x00, 0x00, 0x00, 0x8a, 0xd1, 0xff, 0xff,
  0x10, 0x00, 0x00, 0x00, 0x12, 0x00, 0x00, 0x00, 0x14, 0x00, 0x00, 0x00,
  0x20, 0x00, 0x00, 0x00, 0x02, 0x00, 0x00, 0x00, 0x01, 0x00, 0x00, 0x00,
  0x04, 0x00, 0x00, 0x00, 0x08, 0x00, 0x00, 0x00, 0x49, 0x64, 0x65, 0x6e,
  0x74, 0x69, 0x74, 0x79, 0x00, 0x00, 0x00, 0x00, 0xc4, 0xd1, 0xff, 0xff,
  0x00, 0x00, 0x0e, 0x00, 0x18, 0x00, 0x08, 0x00, 0x0c, 0x00, 0x10, 0x00,
  0x07, 0x00, 0x14, 0x00, 0x0e, 0x00, 0x00, 0x00, 0x00, 0x00, 0x00, 0x08,
  0x03, 0x00, 0x00, 0x00, 0x18, 0x00, 0x00, 0x00, 0x0c, 0x00, 0x00, 0x00,
  0x04, 0x00, 0x00, 0x00, 0x98, 0xd1, 0xff, 0xff, 0x01, 0x00, 0x00, 0x00,
  0x10, 0x00, 0x00, 0x00, 0x03, 0x00, 0x00, 0x00, 0x0f, 0x00, 0x00, 0x00,
  0x05, 0x00, 0x00, 0x00, 0x02, 0x00, 0x00, 0x00, 0x02, 0xd2, 0xff, 0xff,
  0x10, 0x00, 0x00, 0x00, 0x11, 0x00, 0x00, 0x00, 0x14, 0x00, 0x00, 0x00,
  0x30, 0x00, 0x00, 0x00, 0x02, 0x00, 0x00, 0x00, 0x01, 0x00, 0x00, 0x00,
  0x04, 0x00, 0x00, 0x00, 0x1a, 0x00, 0x00, 0x00, 0x73, 0x65, 0x71, 0x75,
  0x65, 0x6e, 0x74, 0x69, 0x61, 0x6c, 0x2f, 0x64, 0x65, 0x6e, 0x73, 0x65,
  0x5f, 0x31, 0x2f, 0x42, 0x69, 0x61, 0x73, 0x41, 0x64, 0x64, 0x00, 0x00,
  0xf4, 0xd1, 0xff, 0xff, 0xd6, 0xfd, 0xff, 0xff, 0x00, 0x00, 0x00, 0x08,
  0x03, 0x00, 0x00, 0x00, 0x24, 0x00, 0x00, 0x00, 0x18, 0x00, 0x00, 0x00,
  0x0c, 0x00, 0x00, 0x00, 0x00, 0x00, 0x06, 0x00, 0x08, 0x00, 0x07, 0x00,
  0x06, 0x00, 0x00, 0x00, 0x00, 0x00, 0x00, 0x01, 0x01, 0x00, 0x00, 0x00,
  0x0f, 0x00, 0x00, 0x00, 0x03, 0x00, 0x00, 0x00, 0x0e, 0x00, 0x00, 0x00,
  0x04, 0x00, 0x00, 0x00, 0x01, 0x00, 0x00, 0x00, 0xfe, 0xfc, 0xff, 0xff,
  0x00, 0x00, 0x00, 0x09, 0x01, 0x00, 0x00, 0x00, 0x92, 0xd2, 0xff, 0xff,
  0x10, 0x00, 0x00, 0x00, 0x10, 0x00, 0x00, 0x00, 0x14, 0x00, 0x00, 0x00,
  0x2c, 0x00, 0x00, 0x00, 0x02, 0x00, 0x00, 0x00, 0x01, 0x00, 0x00, 0x00,
  0x10, 0x00, 0x00, 0x00, 0x15, 0x00, 0x00, 0x00, 0x73, 0x65, 0x71, 0x75,
  0x65, 0x6e, 0x74, 0x69, 0x61, 0x6c, 0x2f, 0x64, 0x65, 0x6e, 0x73, 0x65,
  0x2f, 0x52, 0x65, 0x6c, 0x75, 0x00, 0x00, 0x00, 0xd8, 0xd2, 0xff, 0xff,
  0x00, 0x00, 0x0a, 0x00, 0x10, 0x00, 0x04, 0x00, 0x08, 0x00, 0x0c, 0x00,
  0x0a, 0x00, 0x00, 0x00, 0x02, 0x00, 0x00, 0x00, 0x10, 0x00, 0x00, 0x00,
  0x04, 0x00, 0x00, 0x00, 0x01, 0x00, 0x00, 0x00, 0x0e, 0x00, 0x00, 0x00,
  0x02, 0x00, 0x00, 0x00, 0x0d, 0x00, 0x00, 0x00, 0x03, 0x00, 0x00, 0x00,
  0x7a, 0xfd, 0xff, 0xff, 0x00, 0x00, 0x00, 0x16, 0x01, 0x00, 0x00, 0x00,
  0x0e, 0xd3, 0xff, 0xff, 0x10, 0x00, 0x00, 0x00, 0x0f, 0x00, 0x00, 0x00,
  0x14, 0x00, 0x00, 0x00, 0x30, 0x00, 0x00, 0x00, 0x02, 0x00, 0x00, 0x00,
  0x01, 0x00, 0x00, 0x00, 0x70, 0x00, 0x00, 0x00, 0x1a, 0x00, 0x00, 0x00,
  0x73, 0x65, 0x71, 0x75, 0x65, 0x6e, 0x74, 0x69, 0x61, 0x6c, 0x2f, 0x66,
  0x6c, 0x61, 0x74, 0x74, 0x65, 0x6e, 0x2f, 0x52, 0x65, 0x73, 0x68, 0x61,
  0x70, 0x65, 0x00, 0x00, 0x00, 0xd3, 0xff, 0xff, 0xe2, 0xfe, 0xff, 0xff,
  0x00, 0x00, 0x00, 0x05, 0x01, 0x00, 0x00, 0x00, 0x38, 0x00, 0x00, 0x00,
  0x2c, 0x00, 0x00, 0x00, 0x14, 0x00, 0x00, 0x00, 0x00, 0x00, 0x0e, 0x00,
  0x14, 0x00, 0x00, 0x00, 0x10, 0x00, 0x0c, 0x00, 0x08, 0x00, 0x04, 0x00,
  0x0e, 0x00, 0x00, 0x00, 0x03, 0x00, 0x00, 0x00, 0x01, 0x00, 0x00, 0x00,
  0x03, 0x00, 0x00, 0x00, 0x01, 0x00, 0x00, 0x00, 0x01, 0x00, 0x00, 0x00,
  0x0d, 0x00, 0x00, 0x00, 0x01, 0x00, 0x00, 0x00, 0x0c, 0x00, 0x00, 0x00,
  0x9e, 0xd3, 0xff, 0xff, 0x10, 0x00, 0x00, 0x00, 0x0e, 0x00, 0x00, 0x00,
  0x1c, 0x00, 0x00, 0x00, 0x40, 0x00, 0x00, 0x00, 0x04, 0x00, 0x00, 0x00,
  0x01, 0x00, 0x00, 0x00, 0x07, 0x00, 0x00, 0x00, 0x01, 0x00, 0x00, 0x00,
  0x10, 0x00, 0x00, 0x00, 0x22, 0x00, 0x00, 0x00, 0x73, 0x65, 0x71, 0x75,
  0x65, 0x6e, 0x74, 0x69, 0x61, 0x6c, 0x2f, 0x6d, 0x61, 0x78, 0x5f, 0x70,
  0x6f, 0x6f, 0x6c, 0x69, 0x6e, 0x67, 0x32, 0x64, 0x5f, 0x31, 0x2f, 0x4d,
  0x61, 0x78, 0x50, 0x6f, 0x6f, 0x6c, 0x00, 0x00, 0xa0, 0xd3, 0xff, 0xff,
  0xc2, 0xfe, 0xff, 0xff, 0x00, 0x00, 0x00, 0x01, 0x24, 0x00, 0x00, 0x00,
  0x18, 0x00, 0x00, 0x00, 0x04, 0x00, 0x00, 0x00, 0xb4, 0xfe, 0xff, 0xff,
  0x01, 0x00, 0x00, 0x00, 0x01, 0x00, 0x00, 0x00, 0x00, 0x00, 0x00, 0x01,
  0x01, 0x00, 0x00, 0x00, 0x0c, 0x00, 0x00, 0x00, 0x03, 0x00, 0x00, 0x00,
  0x0b, 0x00, 0x00, 0x00, 0x07, 0x00, 0x00, 0x00, 0x09, 0x00, 0x00, 0x00,
  0x2e, 0xd4, 0xff, 0xff, 0x10, 0x00, 0x00, 0x00, 0x0d, 0x00, 0x00, 0x00,
  0x1c, 0x00, 0x00, 0x00, 0x2c, 0x00, 0x00, 0x00, 0x04, 0x00, 0x00, 0x00,
  0x01, 0x00, 0x00, 0x00, 0x15, 0x00, 0x00, 0x00, 0x01, 0x00, 0x00, 0x00,
  0x10, 0x00, 0x00, 0x00, 0x0c, 0x00, 0x00, 0x00, 0x74, 0x66, 0x6c, 0x2e,
  0x63, 0x6f, 0x6e, 0x76, 0x5f, 0x32, 0x64, 0x31, 0x00, 0x00, 0x00, 0x00,
  0x74, 0xd4, 0xff, 0xff, 0x00, 0x00, 0x0e, 0x00, 0x1a, 0x00, 0x08, 0x00,
  0x0c, 0x00, 0x10, 0x00, 0x07, 0x00, 0x14, 0x00, 0x0e, 0x00, 0x00, 0x00,
  0x00, 0x00, 0x00, 0x05, 0x01, 0x00, 0x00, 0x00, 0x3c, 0x00, 0x00, 0x00,
  0x30, 0x00, 0x00, 0x00, 0x14, 0x00, 0x00, 0x00, 0x00, 0x00, 0x0e, 0x00,
  0x18, 0x00, 0x17, 0x00, 0x10, 0x00, 0x0c, 0x00, 0x08, 0x00, 0x04, 0x00,
  0x0e, 0x00, 0x00, 0x00, 0x03, 0x00, 0x00, 0x00, 0x03, 0x00, 0x00, 0x00,
  0x03, 0x00, 0x00, 0x00, 0x03, 0x00, 0x00, 0x00, 0x00, 0x00, 0x00, 0x01,
  0x01, 0x00, 0x00, 0x00, 0x0b, 0x00, 0x00, 0x00, 0x01, 0x00, 0x00, 0x00,
  0x0a, 0x00, 0x00, 0x00, 0x46, 0xff, 0xff, 0xff, 0x00, 0x00, 0x00, 0x11,
  0x01, 0x00, 0x00, 0x00, 0xda, 0xd4, 0xff, 0xff, 0x10, 0x00, 0x00, 0x00,
  0x0c, 0x00, 0x00, 0x00, 0x1c, 0x00, 0x00, 0x00, 0x40, 0x00, 0x00, 0x00,
  0x04, 0x00, 0x00, 0x00, 0x01, 0x00, 0x00, 0x00, 0x15, 0x00, 0x00, 0x00,
  0x01, 0x00, 0x00, 0x00, 0x08, 0x00, 0x00, 0x00, 0x20, 0x00, 0x00, 0x00,
  0x73, 0x65, 0x71, 0x75, 0x65, 0x6e, 0x74, 0x69, 0x61, 0x6c, 0x2f, 0x6d,
  0x61, 0x78, 0x5f, 0x70, 0x6f, 0x6f, 0x6c, 0x69, 0x6e, 0x67, 0x32, 0x64,
  0x2f, 0x4d, 0x61, 0x78, 0x50, 0x6f, 0x6f, 0x6c, 0x00, 0x00, 0x00, 0x00,
  0x34, 0xd5, 0xff, 0xff, 0x00, 0x00, 0x0e, 0x00, 0x14, 0x00, 0x00, 0x00,
  0x08, 0x00, 0x0c, 0x00, 0x07, 0x00, 0x10, 0x00, 0x0e, 0x00, 0x00, 0x00,
  0x00, 0x00, 0x00, 0x01, 0x30, 0x00, 0x00, 0x00, 0x24, 0x00, 0x00, 0x00,
  0x10, 0x00, 0x00, 0x00, 0x0c, 0x00, 0x10, 0x00, 0x00, 0x00, 0x04, 0x00,
  0x08, 0x00, 0x0f, 0x00, 0x0c, 0x00, 0x00, 0x00, 0x01, 0x00, 0x00, 0x00,
  0x01, 0x00, 0x00, 0x00, 0x00, 0x00, 0x00, 0x01, 0x01, 0x00, 0x00, 0x00,
  0x0a, 0x00, 0x00, 0x00, 0x03, 0x00, 0x00, 0x00, 0x00, 0x00, 0x00, 0x00,
  0x06, 0x00, 0x00, 0x00, 0x08, 0x00, 0x00, 0x00, 0x00, 0x00, 0x0a, 0x00,
  0x0c, 0x00, 0x07, 0x00, 0x00, 0x00, 0x08, 0x00, 0x0a, 0x00, 0x00, 0x00,
  0x00, 0x00, 0x00, 0x03, 0x01, 0x00, 0x00, 0x00, 0x9e, 0xd5, 0xff, 0xff,
  0x10, 0x00, 0x00, 0x00, 0x0b, 0x00, 0x00, 0x00, 0x1c, 0x00, 0x00, 0x00,
  0x28, 0x00, 0x00, 0x00, 0x04, 0x00, 0x00, 0x00, 0x01, 0x00, 0x00, 0x00,
  0x40, 0x00, 0x00, 0x00, 0x03, 0x00, 0x00, 0x00, 0x08, 0x00, 0x00, 0x00,
  0x0b, 0x00, 0x00, 0x00, 0x74, 0x66, 0x6c, 0x2e, 0x63, 0x6f, 0x6e, 0x76,
  0x5f, 0x32, 0x64, 0x00, 0x88, 0xd5, 0xff, 0xff, 0x7e, 0xd6, 0xff, 0xff,
  0x04, 0x00, 0x00, 0x00, 0x40, 0x00, 0x00, 0x00, 0x46, 0x0b, 0x95, 0x3f,
  0x87, 0xe4, 0x51, 0xbf, 0xa6, 0x97, 0xfe, 0xbf, 0xa0, 0x12, 0x50, 0xbe,
  0xf6, 0x17, 0xd4, 0xbe, 0x9e, 0x49, 0x70, 0x3f, 0x61, 0xe0, 0x87, 0x3f,
  0xa9, 0x9c, 0x5d, 0xbf, 0x36, 0xc0, 0xfd, 0xbc, 0x7d, 0x87, 0x00, 0xc0,
  0x61, 0x56, 0x9b, 0xbc, 0xd4, 0x2c, 0x28, 0xbf, 0x4c, 0x2f, 0x5d, 0x40,
  0xaf, 0x58, 0x85, 0x3e, 0x1a, 0x4d, 0x8b, 0x3f, 0x6c, 0x65, 0xf7, 0xbf,
  0x26, 0xd6, 0xff, 0xff, 0x10, 0x00, 0x00, 0x00, 0x0a, 0x00, 0x00, 0x00,
  0x10, 0x00, 0x00, 0x00, 0x20, 0x00, 0x00, 0x00, 0x01, 0x00, 0x00, 0x00,
  0x10, 0x00, 0x00, 0x00, 0x0d, 0x00, 0x00, 0x00, 0x73, 0x74, 0x64, 0x2e,
  0x63, 0x6f, 0x6e, 0x73, 0x74, 0x61, 0x6e, 0x74, 0x31, 0x00, 0x00, 0x00,
  0x08, 0xd6, 0xff, 0xff, 0xfe, 0xd6, 0xff, 0xff, 0x04, 0x00, 0x00, 0x00,
  0x20, 0x00, 0x00, 0x00, 0xc3, 0x9b, 0x33, 0xc0, 0xa9, 0x14, 0xd5, 0xbd,
  0x47, 0xf5, 0x1d, 0xc0, 0xfe, 0xbb, 0x22, 0xc0, 0x3c, 0x63, 0xbb, 0xbf,
  0x7a, 0x36, 0x20, 0xbe, 0x94, 0xc4, 0x47, 0xc0, 0x9a, 0x77, 0x11, 0xc0,
  0x86, 0xd6, 0xff, 0xff, 0x10, 0x00, 0x00, 0x00, 0x09, 0x00, 0x00, 0x00,
  0x10, 0x00, 0x00, 0x00, 0x20, 0x00, 0x00, 0x00, 0x01, 0x00, 0x00, 0x00,
  0x08, 0x00, 0x00, 0x00, 0x0c, 0x00, 0x00, 0x00, 0x73, 0x74, 0x64, 0x2e,
  0x63, 0x6f, 0x6e, 0x73, 0x74, 0x61, 0x6e, 0x74, 0x00, 0x00, 0x00, 0x00,
  0x68, 0xd6, 0xff, 0xff, 0x5e, 0xd7, 0xff, 0xff, 0x04, 0x00, 0x00, 0x00,
  0x00, 0x08, 0x00, 0x00, 0x79, 0x3f, 0x2a, 0xbe, 0x37, 0x93, 0xbb, 0xbd,
  0x54, 0xe8, 0x54, 0xbe, 0x1c, 0x15, 0x3f, 0xbe, 0x88, 0xd8, 0x0c, 0xbd,
  0x4f, 0x10, 0x3e, 0xbd, 0x5b, 0x05, 0xfe, 0xbd, 0x27, 0x96, 0x8a, 0x3d,
  0xdf, 0x49, 0xf0, 0x3d, 0x35, 0x1a, 0xf9, 0x3d, 0xbb, 0x61, 0x2e, 0x3e,
  0xda, 0xb3, 0x38, 0xbe, 0x48, 0x50, 0xa2, 0xbd, 0xca, 0x20, 0x81, 0x3e,
  0xbd, 0x77, 0x57, 0xbd, 0x7b, 0xab, 0x4a, 0x3e, 0x16, 0x4d, 0x32, 0xbe,
  0xea, 0x53, 0xed, 0x3d, 0xb4, 0xf5, 0x51, 0xbe, 0xe3, 0x31, 0x3d, 0xbe,
  0x08, 0x9f, 0xe3, 0xbd, 0x2c, 0x62, 0x4f, 0x3e, 0x81, 0x3a, 0x6a, 0xbe,
  0xc6, 0xb6, 0xf2, 0xbd, 0xf0, 0x32, 0xe9, 0xbd, 0x52, 0x87, 0x54, 0x3d,
  0xb0, 0xb0, 0xe6, 0xbd, 0x45, 0x28, 0x49, 0xbe, 0xb3, 0x22, 0x16, 0x3e,
  0x63, 0xd5, 0x84, 0xbd, 0x8e, 0x41, 0xa0, 0x3e, 0x62, 0x3c, 0xd8, 0xbc,
  0xaa, 0x5f, 0x74, 0x3e, 0x53, 0x9b, 0xe1, 0xbe, 0xf7, 0x84, 0x37, 0x3e,
  0xcb, 0x1c, 0x83, 0x3e, 0xaf, 0x78, 0x7a, 0x3d, 0x32, 0x68, 0xa0, 0xbc,
  0x2f, 0x7a, 0x04, 0x3f, 0x40, 0x4b, 0x25, 0x3e, 0x70, 0xc4, 0xa5, 0x3d,
  0xc2, 0x7f, 0xbb, 0xbe, 0xe0, 0x61, 0x05, 0x3e, 0xe5, 0x54, 0x15, 0xbe,
  0x73, 0xa3, 0xaf, 0xbe, 0xec, 0xa8, 0x0c, 0xbe, 0xdb, 0xae, 0x58, 0xbd,
  0xd7, 0xf1, 0xd1, 0xbe, 0xca, 0x88, 0x13, 0x3e, 0x18, 0xeb, 0x9b, 0x3c,
  0x57, 0x18, 0x93, 0x3d, 0x48, 0xcc, 0x7d, 0xbe, 0x6f, 0x0b, 0x56, 0xbe,
  0x95, 0x84, 0xc0, 0xbd, 0xc8, 0xea, 0x14, 0x3e, 0x86, 0x05, 0xa3, 0xbe,
  0x43, 0xca, 0x13, 0x3d, 0x0a, 0xa6, 0xdc, 0x3d, 0x84, 0xbf, 0xaf, 0x3d,
  0x17, 0xfd, 0x89, 0xbe, 0x54, 0x05, 0x3d, 0xbd, 0x64, 0xd9, 0x2d, 0x3d,
  0xb8, 0x43, 0x24, 0x3e, 0x28, 0xb8, 0x1f, 0xbe, 0x9d, 0x00, 0xba, 0xbc,
  0x06, 0x26, 0xa3, 0xbe, 0xf7, 0xcd, 0x44, 0xbe, 0xa5, 0xa6, 0x84, 0xbe,
  0x12, 0x73, 0x38, 0xbf, 0x8b, 0x73, 0xcd, 0xbc, 0xbd, 0x8e, 0xa5, 0x3e,
  0x98, 0x11, 0x27, 0xbe, 0x9c, 0x11, 0x0a, 0xbe, 0x88, 0x98, 0x4b, 0xbe,
  0xba, 0x25, 0x64, 0xbe, 0x37, 0xa3, 0x9d, 0xbe, 0xdc, 0x06, 0xcc, 0x3d,
  0xf9, 0xdd, 0x83, 0xbd, 0x8c, 0xcb, 0x87, 0x3c, 0x0a, 0xd2, 0x23, 0xbe,
  0x69, 0x25, 0x67, 0x3e, 0x8f, 0x72, 0x46, 0xbe, 0x5f, 0xad, 0xbb, 0x3d,
  0x09, 0x99, 0x28, 0xbe, 0xc3, 0x2e, 0x8f, 0x3e, 0x1b, 0xd2, 0xaa, 0x3d,
  0x54, 0xbd, 0x18, 0xbf, 0x69, 0x01, 0x29, 0xbc, 0x4f, 0x31, 0xbf, 0x3d,
  0x99, 0x74, 0x98, 0xbe, 0x54, 0x12, 0x3a, 0xbd, 0x84, 0x4d, 0x59, 0x3e,
  0x51, 0xba, 0xe8, 0x3e, 0xae, 0x7e, 0x53, 0x3c, 0x35, 0x06, 0x05, 0x3e,
  0x6a, 0x18, 0xbf, 0x3e, 0x39, 0x21, 0x00, 0xbf, 0x60, 0x11, 0x14, 0xbe,
  0x6f, 0x72, 0x27, 0xbf, 0x20, 0x31, 0x00, 0xbf, 0x32, 0xfe, 0x5b, 0xbe,
  0x5b, 0xd0, 0xc0, 0x3d, 0x27, 0x2f, 0x0d, 0xbf, 0x5b, 0xe3, 0x91, 0xbd,
  0x2a, 0x37, 0x99, 0xbd, 0x65, 0xb0, 0x28, 0x3d, 0x77, 0xf4, 0xc9, 0xbd,
  0x6a, 0x5b, 0x09, 0xbf, 0x52, 0xa1, 0x4a, 0xbd, 0x11, 0x6f, 0x45, 0xbb,
  0xda, 0x71, 0x90, 0x3e, 0xb2, 0xd6, 0x38, 0xbe, 0xc5, 0x09, 0x64, 0x3e,
  0x39, 0x68, 0x4b, 0x3d, 0x09, 0xf4, 0x3f, 0x3e, 0xdd, 0x90, 0xe0, 0xbe,
  0xd2, 0x45, 0xf7, 0xbc, 0xac, 0x24, 0x5a, 0xbd, 0x64, 0x93, 0x23, 0x3e,
  0x45, 0xc8, 0x23, 0xbe, 0xd7, 0xdb, 0x15, 0x3e, 0xa5, 0x65, 0x04, 0x3e,
  0xfb, 0x4e, 0xac, 0x3e, 0x60, 0x2a, 0xb0, 0xbe, 0x42, 0x70, 0x23, 0x3e,
  0x13, 0x12, 0x89, 0xbd, 0x89, 0x04, 0xdc, 0x3e, 0xe1, 0x8f, 0x00, 0xbe,
  0x54, 0x25, 0xdf, 0xbe, 0x4e, 0xc0, 0x20, 0xbe, 0xc3, 0xde, 0x80, 0xbe,
  0x8e, 0x64, 0xcd, 0xbd, 0xbe, 0xe8, 0xe3, 0xbe, 0xf5, 0xf9, 0xcc, 0x3d,
  0x32, 0x92, 0x03, 0xbf, 0xae, 0xed, 0x1e, 0xbe, 0x4b, 0x7d, 0xa4, 0x3d,
  0x52, 0x41, 0x91, 0xbd, 0x1d, 0xd5, 0x3a, 0xbe, 0xce, 0xbd, 0xbc, 0xbd,
  0x6c, 0x46, 0xd9, 0xbe, 0xb4, 0xc2, 0x44, 0xbe, 0x57, 0xdc, 0x20, 0x3e,
  0x84, 0x8f, 0x08, 0xbe, 0xf3, 0x60, 0x3f, 0xbc, 0x50, 0x02, 0xe0, 0xbc,
  0x62, 0x86, 0xaf, 0xbc, 0x49, 0xdd, 0x20, 0x3e, 0x2a, 0xd1, 0x67, 0xbe,
  0x53, 0x05, 0xd4, 0xbd, 0xc1, 0xed, 0x0d, 0x3f, 0xe6, 0x6f, 0xef, 0xbc,
  0x19, 0xde, 0x1f, 0x3e, 0xca, 0x6d, 0xd5, 0x3d, 0xd6, 0xe3, 0x84, 0x3c,
  0x4d, 0xc1, 0xa1, 0x3d, 0x26, 0x2b, 0x1b, 0x3e, 0xde, 0x2f, 0x23, 0xbd,
  0xd5, 0xac, 0x30, 0x3e, 0xc6, 0xaf, 0x3a, 0x3d, 0xb9, 0x43, 0x35, 0xbe,
  0xf3, 0xf0, 0x36, 0x3e, 0x61, 0x8e, 0xfb, 0x3e, 0xf5, 0x11, 0x3a, 0x3d,
  0xcc, 0x2e, 0xd1, 0x3e, 0x46, 0x8a, 0x73, 0x3c, 0x37, 0xfb, 0x87, 0xbd,
  0xaa, 0xad, 0x05, 0xbe, 0xd5, 0xde, 0xd1, 0xbe, 0xd5, 0xc0, 0x0a, 0xbd,
  0x9e, 0xab, 0x03, 0xbf, 0xcf, 0x0b, 0x93, 0x3c, 0xbf, 0xeb, 0x34, 0xbe,
  0x8d, 0x8c, 0x65, 0xbd, 0x0a, 0xd8, 0xe9, 0xbe, 0xe3, 0xe3, 0xe4, 0xbd,
  0x5f, 0x87, 0x1f, 0xbf, 0xcc, 0xad, 0x0a, 0xbd, 0x03, 0xae, 0x60, 0xbf,
  0x90, 0x94, 0x07, 0xbc, 0x7e, 0x83, 0x24, 0xbe, 0x95, 0x35, 0xda, 0xba,
  0x01, 0xf6, 0x9f, 0xbe, 0x90, 0xbf, 0xe8, 0xbd, 0xcb, 0x90, 0x3e, 0x3e,
  0x4e, 0x53, 0xe8, 0xbc, 0xd1, 0x2d, 0xdd, 0x3d, 0x9a, 0x80, 0xb4, 0xbb,
  0x24, 0xdd, 0x99, 0x3d, 0x61, 0x59, 0x8c, 0xbb, 0xa0, 0x66, 0xb0, 0xbe,
  0xf7, 0xf3, 0x9e, 0xbd, 0x51, 0x06, 0x0f, 0xbe, 0x7e, 0xf2, 0x5b, 0xbe,
  0xb2, 0xf5, 0x25, 0xbe, 0x22, 0xd0, 0xbe, 0x3d, 0x79, 0xf9, 0x59, 0xbe,
  0x47, 0x95, 0xf4, 0xbd, 0x03, 0x86, 0xa1, 0xbd, 0xb2, 0x1a, 0x5b, 0xbe,
  0x43, 0x40, 0x1a, 0x3e, 0x9e, 0xee, 0xc6, 0x3d, 0x66, 0xf7, 0xee, 0xbd,
  0xc8, 0xb8, 0x8d, 0x3e, 0x73, 0x5d, 0x39, 0xbd, 0xb4, 0x94, 0xc7, 0x3d,
  0x2e, 0x9c, 0x7a, 0x3c, 0x16, 0x52, 0x8f, 0xbe, 0xe3, 0x97, 0x11, 0xbe,
  0x76, 0x48, 0x23, 0xbe, 0x21, 0xb8, 0x17, 0xbe, 0x23, 0x73, 0xe8, 0xbc,
  0x5d, 0xd9, 0xf9, 0x3d, 0xe6, 0x89, 0x3c, 0x3d, 0x65, 0x3e, 0xbc, 0xbc,
  0x5d, 0x1a, 0x8c, 0xbe, 0x2f, 0x1e, 0x58, 0xbe, 0xc5, 0x50, 0x8f, 0xbb,
  0xbd, 0x49, 0x0d, 0x3c, 0xc6, 0x0b, 0xa6, 0x3d, 0x95, 0xec, 0x01, 0x3e,
  0xcf, 0xf0, 0x6c, 0x3d, 0xcd, 0xeb, 0xa0, 0x3d, 0x40, 0xc0, 0x7d, 0xbe,
  0xf9, 0xb7, 0x41, 0x3e, 0x27, 0x2f, 0xcd, 0xbd, 0xc3, 0x82, 0xcc, 0x3e,
  0x1c, 0x9a, 0x3a, 0xbf, 0x2b, 0xde, 0x86, 0xbe, 0xc1, 0xa3, 0xcf, 0x3d,
  0x49, 0x4d, 0xb2, 0x3e, 0x65, 0xc2, 0xa2, 0xbe, 0xae, 0x7f, 0x06, 0x3e,
  0x6f, 0xa2, 0x87, 0xbd, 0xf5, 0x27, 0xbc, 0x3d, 0xc8, 0x2d, 0x41, 0xbf,
  0x68, 0x07, 0xf0, 0x3e, 0x25, 0xd4, 0xc6, 0xbe, 0x2a, 0xda, 0x2c, 0x3e,
  0x8c, 0x5d, 0xb1, 0xbe, 0x1d, 0x57, 0x24, 0x3e, 0x3e, 0xfb, 0xda, 0xbd,
  0x74, 0xd4, 0x06, 0x3e, 0x2b, 0x42, 0x45, 0xbe, 0x9a, 0xa6, 0x06, 0x3e,
  0x62, 0x9c, 0x2d, 0xbe, 0x9c, 0x9d, 0xa9, 0xbd, 0xca, 0x76, 0x84, 0xbd,
  0x3b, 0x0b, 0x2d, 0x3d, 0xe9, 0x0b, 0x8a, 0xbd, 0xb8, 0xcc, 0x90, 0xbb,
  0x0e, 0x8e, 0x2e, 0xbd, 0x68, 0x8c, 0x55, 0xbe, 0x75, 0x19, 0x6c, 0xbe,
  0x5c, 0x9d, 0x96, 0x3e, 0x10, 0x0e, 0x4e, 0x3c, 0xb1, 0x4c, 0x99, 0x3e,
  0x84, 0xfb, 0xc5, 0x3d, 0x0c, 0xdf, 0x6e, 0xbc, 0x5c, 0xf7, 0x18, 0xbe,
  0xc1, 0x36, 0x98, 0x3c, 0x17, 0x55, 0xf0, 0xbe, 0x87, 0xe3, 0x5a, 0x3e,
  0x67, 0xb2, 0x10, 0xbd, 0xf0, 0x0a, 0x80, 0x3d, 0xb8, 0xb2, 0xf3, 0x3d,
  0x79, 0x53, 0x09, 0xbd, 0x4a, 0x6f, 0x05, 0xbe, 0x0c, 0xc6, 0x8a, 0x3d,
  0xb9, 0x9f, 0xed, 0xbe, 0x58, 0x43, 0x32, 0x3e, 0xbd, 0xe7, 0x59, 0xbb,
  0x56, 0x7a, 0xfe, 0x3b, 0x9f, 0xca, 0x3d, 0xbc, 0xac, 0x03, 0x5c, 0x3e,
  0x93, 0xe7, 0xaa, 0xbd, 0xa9, 0xc9, 0xab, 0x3d, 0x7d, 0xb4, 0xb4, 0xbe,
  0x06, 0x0e, 0xf6, 0xbd, 0x60, 0x56, 0x3f, 0xbd, 0x28, 0x7b, 0x4f, 0x3e,
  0xe6, 0xcd, 0xfa, 0x3b, 0x40, 0xac, 0x13, 0x3e, 0xb6, 0x90, 0x78, 0x3c,
  0xc1, 0xd3, 0x1d, 0x3d, 0xd1, 0xa4, 0x2a, 0xbe, 0x99, 0x57, 0x6a, 0x3e,
  0x2e, 0x73, 0xed, 0xbd, 0x24, 0x9b, 0xfd, 0x3d, 0x2e, 0xea, 0xa7, 0xbe,
  0x6d, 0xcf, 0xd0, 0x3d, 0x5d, 0xbf, 0xdd, 0x3c, 0x93, 0xbd, 0xea, 0x3e,
  0x02, 0xec, 0x09, 0x3d, 0x90, 0xb0, 0x54, 0x3f, 0xc9, 0xaf, 0xe1, 0x3d,
  0xb0, 0xb9, 0xa4, 0x3d, 0x4c, 0xd3, 0x7c, 0xbe, 0x16, 0x42, 0xe3, 0x3d,
  0x1a, 0x84, 0x2d, 0x3e, 0x6b, 0x88, 0x4a, 0xbb, 0x31, 0xba, 0xb5, 0xbd,
  0x90, 0x22, 0x03, 0xb9, 0x4a, 0x9d, 0x28, 0x3a, 0xdc, 0xd2, 0x0c, 0x3c,
  0xbb, 0x2a, 0x50, 0xbe, 0xd2, 0x03, 0x9f, 0x3e, 0x3d, 0xfd, 0xae, 0xbd,
  0xc9, 0x52, 0x05, 0xbf, 0x9d, 0x37, 0xe5, 0xbd, 0x96, 0x29, 0xbf, 0x3d,
  0x76, 0x9a, 0xd7, 0xbd, 0x41, 0xfd, 0x96, 0x3d, 0x4f, 0x77, 0x0c, 0xbe,
  0xa1, 0x1e, 0x0d, 0xbd, 0xc9, 0x57, 0x04, 0xbe, 0xf2, 0xf2, 0xe8, 0xbe,
  0x08, 0x56, 0xed, 0xbd, 0xfe, 0x25, 0x22, 0x3e, 0x4e, 0x63, 0x16, 0xbe,
  0x3d, 0xa9, 0x83, 0xbc, 0x20, 0xdb, 0x04, 0xbf, 0x61, 0xb4, 0xe4, 0x3d,
  0x0d, 0xaf, 0x0e, 0xbe, 0xdd, 0x53, 0x4d, 0xbe, 0x8f, 0xa9, 0x59, 0x3e,
  0x03, 0xac, 0x32, 0xbd, 0x96, 0x3c, 0x14, 0xbe, 0xc7, 0xd1, 0x3e, 0xbe,
  0xc3, 0x60, 0xae, 0xbe, 0x3e, 0x44, 0x94, 0x3d, 0xf5, 0x08, 0x3b, 0xbe,
  0x4d, 0x0a, 0x9e, 0xbe, 0xd4, 0x0f, 0x3d, 0x3e, 0x60, 0x2f, 0x70, 0xbd,
  0xab, 0xab, 0x21, 0xbe, 0xdf, 0x5f, 0x47, 0xbe, 0x50, 0xfc, 0x7f, 0xbe,
  0xed, 0x50, 0xe7, 0x3c, 0xb8, 0xe0, 0x97, 0xbd, 0xa0, 0x3a, 0x4c, 0xbe,
  0xc8, 0xf3, 0x14, 0xbd, 0xa3, 0x58, 0xd5, 0xbd, 0x72, 0x5d, 0xcd, 0xbc,
  0xc4, 0x6a, 0x60, 0xbc, 0x69, 0x17, 0xa4, 0xbe, 0x3c, 0xd3, 0x18, 0xbc,
  0xdf, 0x14, 0x11, 0xbe, 0xc1, 0xda, 0x3a, 0xbe, 0xfc, 0x9f, 0xac, 0xbd,
  0x35, 0xaa, 0x68, 0x3e, 0xba, 0xcb, 0x8d, 0xbc, 0x1c, 0x4c, 0x05, 0x3d,
  0x84, 0xa4, 0x02, 0x3e, 0x40, 0x8e, 0x11, 0xbd, 0x44, 0x22, 0x42, 0xbd,
  0x78, 0x5e, 0xf9, 0xbc, 0x26, 0x99, 0xee, 0xbe, 0x10, 0x97, 0x03, 0xbd,
  0xc2, 0x38, 0xb3, 0x3d, 0x20, 0x9d, 0x77, 0x3e, 0x1f, 0xe1, 0x19, 0x3c,
  0x65, 0x8e, 0xe7, 0x3d, 0x79, 0x8b, 0x17, 0xbe, 0x1f, 0xea, 0x47, 0x3e,
  0x3c, 0xfc, 0xb2, 0xbe, 0x71, 0x81, 0x02, 0x3c, 0x70, 0xd8, 0x2a, 0xbe,
  0x3d, 0x9b, 0x7f, 0x3e, 0xe2, 0xed, 0x34, 0xbd, 0xcb, 0x4d, 0x33, 0x3e,
  0xda, 0x9f, 0x8f, 0xbc, 0x70, 0xb1, 0xeb, 0x3d, 0x0d, 0x0c, 0xff, 0xbd,
  0xae, 0xe8, 0xa2, 0xbe, 0xad, 0x02, 0xa0, 0xbd, 0x6c, 0xeb, 0x4b, 0x3d,
  0x7d, 0x28, 0x0d, 0xbe, 0xcf, 0xab, 0xf6, 0x3e, 0x98, 0xb0, 0x83, 0xba,
  0x6b, 0x39, 0xbc, 0xbd, 0xd9, 0x3b, 0x9d, 0x3d, 0xe0, 0x13, 0x92, 0xbe,
  0x66, 0xbe, 0xec, 0xbd, 0x86, 0x49, 0xbd, 0xbe, 0x28, 0x0e, 0x6a, 0xbe,
  0xb3, 0x67, 0xa0, 0xbe, 0x89, 0x44, 0x7d, 0xbd, 0xc0, 0xa8, 0xae, 0xbe,
  0x22, 0x9c, 0xcf, 0x3b, 0x69, 0x01, 0x63, 0xbe, 0xb0, 0xf9, 0x70, 0xbe,
  0x85, 0x85, 0xe3, 0x3e, 0xff, 0xc6, 0x1d, 0xbc, 0xf0, 0xb3, 0x63, 0xbd,
  0x08, 0x29, 0x2e, 0xbc, 0xf8, 0xf3, 0x04, 0xbe, 0xd2, 0x0f, 0xa0, 0xbd,
  0x52, 0xe6, 0x9f, 0xbd, 0x4e, 0x4e, 0x06, 0xbe, 0xb2, 0x9c, 0x12, 0xbe,
  0x54, 0xec, 0xe1, 0xbe, 0x59, 0xeb, 0xcd, 0x3d, 0x68, 0x38, 0x2c, 0x3d,
  0x37, 0xda, 0x22, 0xbe, 0x34, 0x84, 0x9b, 0xbd, 0x5e, 0xfe, 0xaf, 0xbe,
  0xc4, 0x41, 0x12, 0xbe, 0xcb, 0x73, 0xb5, 0x3c, 0x99, 0x42, 0x78, 0xbe,
  0x89, 0x6d, 0x9c, 0x3c, 0xc0, 0xd3, 0x00, 0x3d, 0x67, 0x2e, 0xd3, 0xbd,
  0x13, 0xf7, 0xcb, 0xbd, 0xa8, 0x51, 0xfe, 0xba, 0x22, 0x74, 0xc6, 0xbd,
  0x87, 0xd3, 0xab, 0xbe, 0x3c, 0xf2, 0xf4, 0xbc, 0xe6, 0xcc, 0x81, 0xbe,
  0x8b, 0x4f, 0x30, 0xbe, 0x44, 0x28, 0x3c, 0xbf, 0xaf, 0x86, 0x51, 0x3e,
  0x57, 0x6f, 0x99, 0xbd, 0x2d, 0x51, 0x51, 0xbd, 0x46, 0x08, 0xcc, 0x3c,
  0x7d, 0x19, 0x57, 0xbd, 0x33, 0x77, 0x93, 0xbd, 0xe0, 0x04, 0xbb, 0xbe,
  0xe9, 0xc4, 0x36, 0xbe, 0x91, 0xe3, 0x0a, 0xbd, 0xbc, 0xb2, 0x0b, 0x3f,
  0x51, 0xe6, 0x71, 0xbe, 0x3a, 0xcd, 0xc7, 0x3d, 0x19, 0x09, 0xe6, 0xbd,
  0x0e, 0x5a, 0x18, 0x3e, 0xc8, 0x52, 0xc9, 0xbe, 0x67, 0xd2, 0x03, 0x3d,
  0x70, 0xa1, 0x91, 0xbe, 0x06, 0x70, 0x44, 0xbe, 0x23, 0x71, 0x19, 0xbe,
  0xb1, 0xc3, 0x49, 0x3e, 0x8c, 0x45, 0x7c, 0xbe, 0x4a, 0xef, 0x3b, 0x3a,
  0x1d, 0xe7, 0xeb, 0xbb, 0x94, 0xce, 0x15, 0x3e, 0x31, 0x62, 0xde, 0xbd,
  0x8a, 0x22, 0x4c, 0xbe, 0x64, 0x31, 0x25, 0x3e, 0xb9, 0x6e, 0xbe, 0x3a,
  0x52, 0x21, 0x17, 0xbd, 0xf4, 0xe7, 0x8d, 0xbe, 0xe9, 0x1d, 0x91, 0x3d,
  0xe3, 0x80, 0x53, 0x3d, 0xb2, 0xa0, 0x8b, 0xbb, 0x07, 0xac, 0xf5, 0xbd,
  0xd1, 0x31, 0x3c, 0xbe, 0xf9, 0xb2, 0x3a, 0xbe, 0xd0, 0x8b, 0xb9, 0xbd,
  0xf4, 0x46, 0x61, 0xbe, 0xa1, 0x32, 0xa7, 0xbd, 0x09, 0x96, 0x14, 0xbe,
  0x70, 0x9a, 0xbf, 0x3d, 0x31, 0x29, 0x18, 0xbe, 0x0f, 0xa7, 0x8e, 0xbe,
  0x34, 0x06, 0x36, 0xbe, 0x0d, 0x23, 0x89, 0xbe, 0xdd, 0xe4, 0x89, 0x3e,
  0x13, 0x9c, 0x23, 0x3e, 0x16, 0xd2, 0x1a, 0x3e, 0x43, 0x4c, 0xa3, 0xbc,
  0xa3, 0x97, 0x8f, 0xbe, 0x11, 0xc5, 0x18, 0xbe, 0x5d, 0x28, 0xde, 0x3d,
  0xdb, 0x98, 0xbe, 0xbe, 0xca, 0x66, 0x72, 0xbe, 0x64, 0x4f, 0x80, 0xbe,
  0xf1, 0x53, 0x7b, 0xbe, 0x55, 0x3f, 0xc9, 0xbe, 0x55, 0xbb, 0x8a, 0x3d,
  0x41, 0x6c, 0x6c, 0xbe, 0xb7, 0x64, 0xe0, 0x3e, 0xaf, 0x23, 0x62, 0x3c,
  0xc8, 0x60, 0x94, 0x3e, 0x91, 0xb4, 0x3d, 0xbd, 0x54, 0xb3, 0x8e, 0x3d,
  0x4f, 0xd0, 0x42, 0xbe, 0xe2, 0x1d, 0x45, 0x3e, 0x38, 0x0f, 0xd3, 0xbd,
  0x68, 0xa4, 0x03, 0x3d, 0xe3, 0x2a, 0x5a, 0x3c, 0x5f, 0x27, 0xd1, 0x3d,
  0x47, 0xb0, 0x21, 0xbd, 0xd5, 0xf0, 0x39, 0x3d, 0x69, 0xb2, 0x11, 0xbe,
  0x88, 0xfc, 0xed, 0x3d, 0x4c, 0x88, 0xb0, 0xbd, 0x83, 0x97, 0xff, 0x3c,
  0x96, 0x92, 0x12, 0xbd, 0xdb, 0xf8, 0x82, 0x3e, 0x39, 0xbf, 0x7f, 0xbd,
  0xd6, 0x98, 0x69, 0xbd, 0x9d, 0xfb, 0xb2, 0xbd, 0x5f, 0x37, 0x07, 0xbe,
  0x70, 0x9e, 0x8a, 0xbd, 0xf7, 0x29, 0xf4, 0x3d, 0x20, 0x8b, 0x92, 0xba,
  0x80, 0x02, 0x1d, 0xbd, 0x8c, 0xca, 0x39, 0x3d, 0xe3, 0x06, 0xaf, 0xbd,
  0x2b, 0x71, 0xeb, 0x3d, 0xa6, 0x9d, 0xfc, 0xbd, 0xed, 0x8e, 0x37, 0x3d,
  0xc6, 0xde, 0xff, 0xff, 0x10, 0x00, 0x00, 0x00, 0x08, 0x00, 0x00, 0x00,
  0x1c, 0x00, 0x00, 0x00, 0x38, 0x00, 0x00, 0x00, 0x04, 0x00, 0x00, 0x00,
  0x10, 0x00, 0x00, 0x00, 0x04, 0x00, 0x00, 0x00, 0x01, 0x00, 0x00, 0x00,
  0x08, 0x00, 0x00, 0x00, 0x1a, 0x00, 0x00, 0x00, 0x73, 0x65, 0x71, 0x75,
  0x65, 0x6e, 0x74, 0x69, 0x61, 0x6c, 0x2f, 0x63, 0x6f, 0x6e, 0x76, 0x32,
  0x64, 0x5f, 0x31, 0x2f, 0x43, 0x6f, 0x6e, 0x76, 0x32, 0x44, 0x00, 0x00,
  0xc0, 0xde, 0xff, 0xff, 0xb6, 0xdf, 0xff, 0xff, 0x04, 0x00, 0x00, 0x00,
  0x80, 0x01, 0x00, 0x00, 0x9f, 0x72, 0x00, 0xbe, 0xb7, 0x53, 0x8a, 0x3e,
  0xe5, 0x05, 0x86, 0x3e, 0xa5, 0xcb, 0x55, 0xbe, 0xe8, 0x2f, 0xa9, 0xbc,
  0x0e, 0x0b, 0x5e, 0x3d, 0xc7, 0xd1, 0x80, 0xbc, 0xc0, 0xf1, 0x95, 0xbe,
  0xa8, 0x9c, 0x3a, 0x3b, 0xdc, 0x36, 0xbc, 0x3e, 0x14, 0x2c, 0x4a, 0xbc,
  0xc4, 0xf4, 0xb8, 0xbe, 0x00, 0x98, 0xfd, 0x3d, 0x03, 0x6c, 0x32, 0xbe,
  0x48, 0xb8, 0x98, 0x3d, 0x97, 0x98, 0x3c, 0x3e, 0xc8, 0x20, 0xd9, 0x3d,
  0x22, 0x32, 0x31, 0xbd, 0x04, 0xf1, 0x88, 0xbd, 0x33, 0xc3, 0x8a, 0x3c,
  0x91, 0xb1, 0xe8, 0xbc, 0x0c, 0x24, 0xff, 0x3d, 0x29, 0xc1, 0xe7, 0x3d,
  0xa0, 0xd8, 0x8c, 0xbd, 0xfe, 0x9a, 0xb5, 0xbe, 0x61, 0x64, 0xce, 0x3d,
  0x4a, 0xbf, 0xb4, 0x3e, 0x8f, 0x93, 0x24, 0x3e, 0xee, 0x9e, 0x26, 0xbe,
  0x55, 0x2b, 0xa4, 0x3e, 0x46, 0x55, 0x55, 0xbd, 0xee, 0x5a, 0x28, 0xbe,
  0x23, 0x6e, 0xcf, 0xbe, 0x82, 0x3f, 0x58, 0x3e, 0x6d, 0xb0, 0x44, 0x3e,
  0x3d, 0x1a, 0x8d, 0xbe, 0xfc, 0xdf, 0x78, 0xbd, 0xa6, 0x0d, 0x44, 0xbe,
  0xbc, 0xfa, 0x85, 0x3d, 0xc0, 0xa6, 0x38, 0xbd, 0x9a, 0x1f, 0xcf, 0xbd,
  0xd2, 0x0a, 0xe5, 0x3d, 0x1d, 0xcc, 0x27, 0xbd, 0x90, 0x9e, 0xcb, 0xbb,
  0x1c, 0xce, 0x84, 0x3c, 0x81, 0x15, 0x86, 0xbd, 0x24, 0x4d, 0x54, 0x3c,
  0x6d, 0xea, 0x5c, 0x3c, 0x6d, 0xac, 0x0c, 0x3e, 0xb7, 0xef, 0xae, 0xbd,
  0x19, 0xca, 0xb8, 0xbc, 0xef, 0xd1, 0xd0, 0x3e, 0x51, 0xed, 0x15, 0x3e,
  0xc0, 0xfe, 0x35, 0x3e, 0x21, 0x4a, 0x02, 0xbe, 0xe1, 0x06, 0xe0, 0x3d,
  0x3d, 0xa1, 0x03, 0xbe, 0x3f, 0x42, 0xc9, 0xbe, 0x36, 0xe0, 0x73, 0xbe,
  0x47, 0xa3, 0xa1, 0x3d, 0x8b, 0x3c, 0x18, 0xbe, 0xe2, 0x2e, 0x7a, 0x3d,
  0x8e, 0x25, 0x36, 0xbe, 0x82, 0xc1, 0xa2, 0xbd, 0x95, 0xe4, 0x18, 0x3d,
  0xc5, 0xbe, 0x0d, 0xbe, 0xd0, 0xea, 0x9e, 0xbd, 0x94, 0xcb, 0x17, 0x3d,
  0x54, 0xe9, 0xcd, 0xbd, 0xde, 0x2a, 0x36, 0x3c, 0x24, 0x50, 0xb3, 0x3d,
  0x9b, 0xc4, 0x09, 0xbe, 0x06, 0xa3, 0x16, 0xbe, 0xd9, 0x7b, 0x88, 0x3b,
  0xc2, 0x2f, 0xf7, 0xbb, 0x8b, 0xc1, 0x04, 0xbf, 0x5c, 0x51, 0x3c, 0xbe,
  0xeb, 0xde, 0x8a, 0xbe, 0x9c, 0x48, 0xda, 0x3d, 0x24, 0xa1, 0xd4, 0xbd,
  0xe0, 0x17, 0x78, 0xbd, 0x21, 0x37, 0x0e, 0x3f, 0x8d, 0xb8, 0x82, 0x3e,
  0xb7, 0xea, 0xad, 0x3e, 0xf6, 0x19, 0x92, 0x3d, 0xb3, 0xd3, 0x96, 0x3d,
  0x5c, 0x7b, 0x2d, 0xbe, 0x80, 0x17, 0x1b, 0x3d, 0xb2, 0x86, 0x94, 0x3d,
  0x9d, 0xb5, 0x21, 0xbe, 0x0f, 0xe6, 0x22, 0x3d, 0x6a, 0x46, 0xfd, 0xbd,
  0x8b, 0x12, 0xd0, 0xbd, 0xf8, 0xd5, 0x93, 0x3d, 0x8e, 0xfa, 0x1e, 0xbe,
  0xfc, 0x70, 0x4a, 0xbb, 0x9e, 0xe0, 0xff, 0xff, 0x10, 0x00, 0x00, 0x00,
  0x07, 0x00, 0x00, 0x00, 0x1c, 0x00, 0x00, 0x00, 0x38, 0x00, 0x00, 0x00,
  0x04, 0x00, 0x00, 0x00, 0x08, 0x00, 0x00, 0x00, 0x04, 0x00, 0x00, 0x00,
  0x03, 0x00, 0x00, 0x00, 0x01, 0x00, 0x00, 0x00, 0x18, 0x00, 0x00, 0x00,
  0x73, 0x65, 0x71, 0x75, 0x65, 0x6e, 0x74, 0x69, 0x61, 0x6c, 0x2f, 0x63,
  0x6f, 0x6e, 0x76, 0x32, 0x64, 0x2f, 0x43, 0x6f, 0x6e, 0x76, 0x32, 0x44,
  0x00, 0x00, 0x00, 0x00, 0x98, 0xe0, 0xff, 0xff, 0x8e, 0xe1, 0xff, 0xff,
  0x04, 0x00, 0x00, 0x00, 0x00, 0x01, 0x00, 0x00, 0xa4, 0x2d, 0xfc, 0x3d,
  0xf3, 0x2f, 0x24, 0x3e, 0x42, 0x09, 0x7d, 0x3e, 0x0f, 0xe0, 0x0a, 0x3f,
  0xbc, 0xd4, 0x2a, 0xbe, 0x9d, 0xfb, 0x6a, 0x3e, 0xd0, 0x9c, 0x62, 0x3e,
  0x85, 0x9e, 0xc3, 0x3e, 0x82, 0x77, 0xaa, 0xbd, 0xc3, 0xaf, 0x0f, 0xbe,
  0x62, 0xd8, 0xd8, 0xbe, 0xeb, 0xb3, 0x12, 0x3e, 0xfc, 0x1a, 0x5f, 0xbe,
  0x61, 0xa4, 0x7a, 0xbe, 0x50, 0xe8, 0x85, 0x3e, 0x12, 0x3a, 0xd6, 0x3c,
  0xb0, 0xd2, 0x3f, 0x3e, 0x16, 0xc7, 0xc7, 0x3d, 0x33, 0xad, 0xc8, 0x3e,
  0x06, 0xa6, 0x05, 0xbb, 0x02, 0xff, 0x56, 0xbe, 0x09, 0xa0, 0x46, 0x3e,
  0xfd, 0x75, 0x83, 0xbc, 0xeb, 0x3e, 0xd3, 0x3e, 0xb3, 0xbf, 0x0b, 0x3e,
  0xfb, 0x42, 0xac, 0xbd, 0xf9, 0x1a, 0xc1, 0xbe, 0xf6, 0x54, 0x0c, 0x3e,
  0x73, 0xf6, 0x07, 0xbe, 0xa7, 0x74, 0x37, 0xbe, 0x9e, 0xc1, 0x8c, 0x3e,
  0xf8, 0x9d, 0x33, 0x3d, 0xcc, 0x7f, 0x82, 0x3e, 0xf5, 0x32, 0xd3, 0xbc,
  0x73, 0x81, 0xcf, 0x3e, 0x44, 0x7b, 0x27, 0x3e, 0x64, 0x31, 0x81, 0xbe,
  0x60, 0xa1, 0x27, 0x3e, 0x36, 0xfb, 0xcb, 0xbe, 0xcc, 0x2d, 0xc7, 0x3e,
  0xa6, 0x1b, 0x83, 0x3e, 0xb0, 0x0f, 0x12, 0xbe, 0x84, 0x0c, 0x9b, 0x3c,
  0xff, 0x74, 0xed, 0x3d, 0x46, 0x8f, 0x09, 0xbe, 0x36, 0xc9, 0x45, 0xbe,
  0xb8, 0xce, 0x72, 0x3e, 0xd3, 0xad, 0x2a, 0x3e, 0x69, 0xae, 0x42, 0x3e,
  0x07, 0x04, 0x33, 0x3e, 0x7b, 0xab, 0xd7, 0x3e, 0x3c, 0x81, 0x6e, 0xbe,
  0x7c, 0xd4, 0x68, 0xbe, 0x1b, 0xad, 0x2c, 0x3e, 0xd5, 0x5c, 0x93, 0xbd,
  0x77, 0x3e, 0xa9, 0x3e, 0x58, 0xdd, 0x24, 0x3e, 0xd3, 0x8a, 0xfa, 0xbd,
  0xdd, 0xc1, 0x13, 0xbe, 0x72, 0x4a, 0x34, 0x3e, 0xc7, 0x3c, 0xf3, 0xbd,
  0x8b, 0x07, 0x1e, 0xbe, 0xef, 0xde, 0x3a, 0x3e, 0xc4, 0xfe, 0x10, 0x3e,
  0xf6, 0xe1, 0xff, 0xff, 0x10, 0x00, 0x00, 0x00, 0x06, 0x00, 0x00, 0x00,
  0x14, 0x00, 0x00, 0x00, 0x30, 0x00, 0x00, 0x00, 0x02, 0x00, 0x00, 0x00,
  0x04, 0x00, 0x00, 0x00, 0x10, 0x00, 0x00, 0x00, 0x19, 0x00, 0x00, 0x00,
  0x73, 0x65, 0x71, 0x75, 0x65, 0x6e, 0x74, 0x69, 0x61, 0x6c, 0x2f, 0x64,
  0x65, 0x6e, 0x73, 0x65, 0x5f, 0x31, 0x2f, 0x4d, 0x61, 0x74, 0x4d, 0x75,
  0x6c, 0x00, 0x00, 0x00, 0xe8, 0xe1, 0xff, 0xff, 0xde, 0xe2, 0xff, 0xff,
  0x04, 0x00, 0x00, 0x00, 0x00, 0x1c, 0x00, 0x00, 0x17, 0xf5, 0x51, 0xbe,
  0x78, 0x93, 0x9b, 0xbe, 0x14, 0xbe, 0xc7, 0xbd, 0xac, 0x10, 0x60, 0xbe,
  0x15, 0xde, 0x86, 0x3e, 0x08, 0x15, 0x26, 0xbe, 0x89, 0x55, 0x19, 0xbe,
  0x80, 0x71, 0x0d, 0xbe, 0xcd, 0x70, 0x8b, 0x3e, 0x06, 0xdc, 0xcc, 0xbd,
  0x52, 0x9f, 0xb2, 0xbb, 0x56, 0x44, 0xef, 0x3d, 0x00, 0x4f, 0xcf, 0xbe,
  0xa8, 0x1c, 0x0d, 0xbe, 0x59, 0x7d, 0xf6, 0xbd, 0x72, 0x95, 0x6d, 0x3d,
  0x56, 0xf5, 0xc2, 0xbd, 0x63, 0x3c, 0xe0, 0xbe, 0x3c, 0x07, 0x61, 0xbd,
  0x78, 0x34, 0xd5, 0x3c, 0x20, 0x63, 0x41, 0x3d, 0x1b, 0x5a, 0xfc, 0x3e,
  0xd6, 0xbb, 0xcc, 0xbd, 0x3b, 0x0e, 0x7e, 0xbe, 0x43, 0xf1, 0xb6, 0x3d,
  0xd8, 0x3c, 0x8d, 0xbe, 0x57, 0x99, 0x73, 0xbd, 0xc5, 0xb5, 0x0f, 0x3e,
  0xfc, 0x8b, 0x6f, 0xbd, 0xa5, 0x01, 0x0a, 0x3e, 0xe7, 0xa0, 0x2c, 0x3d,
  0xb4, 0xfc, 0x10, 0x3d, 0x9a, 0x9a, 0xe9, 0xbd, 0xa0, 0x72, 0x96, 0xbe,
  0xa3, 0xd1, 0x33, 0xbe, 0x91, 0x20, 0x8b, 0xbe, 0x10, 0x3c, 0x72, 0x3d,
  0x76, 0x13, 0x08, 0x3d, 0x67, 0x6a, 0x29, 0x3d, 0x30, 0x20, 0x19, 0xbe,
  0x40, 0xb9, 0x6f, 0xbd, 0x65, 0x39, 0xb2, 0xbc, 0x52, 0xae, 0x86, 0xbe,
  0x85, 0x6f, 0x6e, 0x3e, 0x7c, 0x31, 0xcc, 0xbd, 0xf2, 0x7e, 0xee, 0x3d,
  0x9d, 0xe2, 0x27, 0xbc, 0x5b, 0xab, 0x32, 0x3e, 0x71, 0x6e, 0x87, 0xbb,
  0x35, 0x74, 0xae, 0xbe, 0x0b, 0x7e, 0xf2, 0xbc, 0x1d, 0x66, 0x8d, 0xbe,
  0xfa, 0x0c, 0x06, 0x3e, 0x86, 0x61, 0xdc, 0xbd, 0x7f, 0xc2, 0x99, 0xbd,
  0x46, 0x3e, 0x2e, 0xbe, 0x42, 0xf2, 0xd0, 0xbd, 0xc3, 0xc8, 0x9b, 0xbd,
  0x05, 0xed, 0xf0, 0xbb, 0xbe, 0xae, 0x46, 0x3d, 0xdb, 0xb6, 0x0b, 0xbe,
  0xd5, 0x07, 0x0e, 0x3d, 0x47, 0xbe, 0x9e, 0xbc, 0x98, 0x5f, 0xd3, 0xbd,
  0x14, 0xb5, 0x08, 0xbd, 0x07, 0xa2, 0x5a, 0xbe, 0x28, 0x79, 0x5d, 0xbe,
  0x79, 0x29, 0x6b, 0xbe, 0x72, 0xd0, 0xf5, 0x3d, 0x71, 0x00, 0x5b, 0x3a,
  0x76, 0x66, 0x97, 0xbd, 0xf8, 0x87, 0x90, 0xbe, 0x71, 0x59, 0xfe, 0x3d,
  0x74, 0x4d, 0x34, 0xbe, 0xae, 0x46, 0x84, 0xbe, 0x09, 0x02, 0x20, 0x3e,
  0x98, 0x74, 0x12, 0x3d, 0x10, 0x31, 0x61, 0xbd, 0x99, 0xf9, 0x35, 0xbe,
  0xfb, 0x93, 0xb1, 0xbd, 0xfc, 0xb4, 0x63, 0xbd, 0x7d, 0xc9, 0xed, 0xbd,
  0x4a, 0x34, 0xde, 0xbd, 0x24, 0x5d, 0xea, 0xbd, 0xd7, 0xa5, 0xd5, 0xbd,
  0x26, 0x39, 0x8f, 0xbd, 0x0d, 0x05, 0xb3, 0xbd, 0x90, 0x05, 0x95, 0xbd,
  0x51, 0xb1, 0xbe, 0xbc, 0x4d, 0x3a, 0x2b, 0xbe, 0x98, 0x1e, 0xab, 0xbd,
  0x07, 0x6f, 0x91, 0x3e, 0x0e, 0x74, 0x3b, 0xbe, 0xea, 0x76, 0x3c, 0xbe,
  0x5d, 0xe2, 0x34, 0x3e, 0x37, 0x03, 0xfc, 0x3d, 0x15, 0x5e, 0x91, 0x3c,
  0xbb, 0x65, 0xb6, 0xbc, 0x82, 0xfa, 0x2a, 0xbd, 0x59, 0x81, 0x5a, 0xbe,
  0x68, 0x92, 0xd2, 0xbd, 0xf1, 0x0c, 0x2e, 0x3e, 0x90, 0x9e, 0xf1, 0xbc,
  0xee, 0xac, 0xad, 0xbd, 0x43, 0x94, 0xce, 0xbd, 0xa5, 0xdf, 0x0f, 0x3d,
  0x5f, 0x75, 0xe9, 0xbc, 0x20, 0xa2, 0x94, 0xbb, 0x67, 0x47, 0x73, 0x3c,
  0x93, 0xdc, 0xd0, 0xbd, 0x0e, 0xa5, 0x94, 0xbc, 0xc2, 0x7b, 0x13, 0xbe,
  0x8c, 0x41, 0x88, 0xbd, 0x08, 0x0a, 0xa2, 0x3c, 0xd0, 0x46, 0x47, 0x3d,
  0xd3, 0x5e, 0xb0, 0x3d, 0xb1, 0xe7, 0x42, 0xbe, 0x28, 0x19, 0x78, 0xbe,
  0x40, 0xc6, 0x52, 0x3e, 0xe7, 0xf8, 0x92, 0xbe, 0xdc, 0xd3, 0x9f, 0xbd,
  0x55, 0x44, 0x23, 0xbe, 0xcb, 0xe5, 0xe2, 0x3d, 0xb4, 0x74, 0x3f, 0xbe,
  0xbb, 0xdb, 0x6e, 0x3e, 0x12, 0x1a, 0x07, 0xbe, 0xc0, 0xbe, 0xa1, 0x3e,
  0x15, 0xd3, 0x6f, 0xbb, 0x73, 0x60, 0xac, 0x3d, 0xea, 0x9c, 0x8d, 0xbe,
  0x79, 0x79, 0x87, 0x3d, 0x0a, 0xd0, 0x30, 0x3e, 0xcb, 0xd5, 0x92, 0xbe,
  0x2b, 0xf3, 0xf2, 0xbd, 0x92, 0xe7, 0x2d, 0x3c, 0xd5, 0x90, 0xe7, 0xbc,
  0x96, 0x8a, 0x22, 0xbd, 0x04, 0x5c, 0x62, 0x3d, 0x33, 0x23, 0x30, 0x3e,
  0x92, 0xbc, 0xfe, 0xbd, 0x29, 0x6e, 0x1a, 0x3d, 0xfe, 0x9d, 0x83, 0x3e,
  0xb9, 0xb8, 0x8a, 0x3e, 0x7d, 0x04, 0x92, 0xbe, 0x87, 0x3f, 0xee, 0xbd,
  0x0d, 0x51, 0x87, 0xbd, 0xde, 0x96, 0x94, 0xbc, 0x86, 0xfe, 0x6c, 0x3e,
  0xe5, 0x05, 0x24, 0xbe, 0x66, 0x73, 0x7c, 0xbd, 0x3c, 0x59, 0x60, 0x3d,
  0xb6, 0x80, 0x0c, 0x3e, 0xf8, 0xcd, 0xf5, 0xbd, 0x0c, 0x8d, 0xf3, 0xbc,
  0x72, 0xf6, 0x5c, 0x3e, 0xb9, 0xdd, 0x67, 0xbe, 0xa4, 0xc0, 0x5d, 0x3e,
  0xb1, 0x08, 0x3f, 0x3e, 0xc1, 0xba, 0x89, 0x3d, 0xe3, 0x83, 0xd4, 0xbd,
  0x01, 0x6a, 0x60, 0x3d, 0xb4, 0x1d, 0x94, 0xbd, 0x92, 0x6b, 0x47, 0x3e,
  0x64, 0x5d, 0x1f, 0x3c, 0xb9, 0x6d, 0xb1, 0xbd, 0x18, 0xc4, 0x3a, 0xbe,
  0x33, 0xf3, 0x18, 0x3e, 0xf8, 0xd1, 0x4a, 0xbe, 0x49, 0xc6, 0xb0, 0x3d,
  0x80, 0x7c, 0x3f, 0x3d, 0xcb, 0xba, 0xa8, 0x3e, 0x34, 0x33, 0xd3, 0x3d,
  0x7a, 0x2a, 0xfb, 0x3d, 0xe0, 0xf3, 0xce, 0x3d, 0xbf, 0xa0, 0x1b, 0x3e,
  0x04, 0xf2, 0xc5, 0x3c, 0x0f, 0x95, 0x49, 0x3c, 0x5d, 0x41, 0x1b, 0x3e,
  0xd9, 0x0f, 0xd5, 0x3d, 0x5d, 0xbd, 0x34, 0xbd, 0x46, 0x1a, 0x8b, 0xbe,
  0xa1, 0xf5, 0x82, 0xbe, 0x78, 0x4f, 0x29, 0xbe, 0xbc, 0xdf, 0xfc, 0x3d,
  0xa3, 0xa1, 0x1c, 0xbe, 0x63, 0x62, 0x6a, 0x3e, 0x66, 0x33, 0x51, 0x3e,
  0x5d, 0xc7, 0x14, 0xbe, 0xdd, 0x3c, 0xdf, 0x3d, 0x96, 0x80, 0x2e, 0x3e,
  0x2e, 0x58, 0xcb, 0x3e, 0xac, 0xca, 0x5c, 0x3e, 0xf6, 0xd0, 0xd7, 0xbd,
  0x13, 0x5a, 0x38, 0x3e, 0x2e, 0x53, 0x7b, 0xbd, 0x76, 0xc1, 0x1f, 0x3e,
  0xe4, 0x11, 0x26, 0xba, 0x4d, 0xad, 0xde, 0xbd, 0x37, 0x46, 0x8e, 0xbd,
  0xc9, 0x09, 0x78, 0xbc, 0x6e, 0x6e, 0x9a, 0x3c, 0x85, 0xe9, 0xa5, 0x3c,
  0x0e, 0x63, 0x7f, 0x3e, 0xf1, 0x3e, 0x14, 0xbd, 0xb9, 0x24, 0x3c, 0x3e,
  0x49, 0xa7, 0xcd, 0x3d, 0xfd, 0x8c, 0x95, 0x3e, 0x41, 0x92, 0xd9, 0xbd,
  0x7f, 0x65, 0xaf, 0xbe, 0x33, 0x80, 0xd5, 0x3c, 0x30, 0x32, 0xe6, 0x3d,
  0xbb, 0xa9, 0xfa, 0xbd, 0x7f, 0x4f, 0x90, 0xbe, 0xc1, 0x44, 0xb2, 0xbb,
  0xd5, 0xf4, 0xe7, 0xbb, 0x7a, 0x54, 0xf2, 0xbd, 0x13, 0x2c, 0x84, 0x3b,
  0xb5, 0xa0, 0x64, 0xbe, 0xc6, 0x09, 0x9b, 0x3e, 0x8f, 0x65, 0x53, 0xbe,
  0x6a, 0xcd, 0x33, 0x3e, 0x28, 0xef, 0x6f, 0x3e, 0xb8, 0x84, 0xa0, 0x3e,
  0x5e, 0x3c, 0x39, 0xbe, 0x52, 0xd8, 0xcf, 0xbe, 0x85, 0x0b, 0x91, 0xbc,
  0xae, 0x39, 0x77, 0xbd, 0xef, 0x50, 0xf2, 0x3e, 0x9e, 0x77, 0xde, 0xbe,
  0xc1, 0x0e, 0xeb, 0xbe, 0x5c, 0xcb, 0x95, 0xbe, 0xdf, 0xfb, 0x39, 0x3d,
  0x48, 0xa3, 0xad, 0x3d, 0xaa, 0xd2, 0x19, 0xbd, 0xf2, 0x12, 0xb0, 0x3e,
  0xc4, 0x8d, 0xb9, 0xbc, 0xfa, 0x4a, 0x79, 0x3e, 0x5d, 0x52, 0x83, 0xbd,
  0x28, 0x42, 0x13, 0x3e, 0x8a, 0xae, 0x3b, 0xbd, 0xfb, 0x13, 0x33, 0xbe,
  0x6f, 0xfe, 0xa3, 0x3d, 0xc4, 0x11, 0x5b, 0xbd, 0xbe, 0x8f, 0x1a, 0x3e,
  0x23, 0x74, 0x9e, 0xbe, 0x74, 0x1f, 0x92, 0xbe, 0x2b, 0x20, 0x77, 0xbe,
  0x8f, 0xb5, 0x80, 0x3e, 0xd7, 0x98, 0xce, 0x3d, 0x09, 0x50, 0x7f, 0xbe,
  0x8b, 0xe8, 0xea, 0xbc, 0xfe, 0xaf, 0x67, 0x3d, 0x12, 0x3f, 0x95, 0xbd,
  0x6f, 0xce, 0x75, 0xbe, 0x20, 0x97, 0x87, 0xbd, 0xf4, 0x9c, 0x0c, 0xbd,
  0x61, 0xa3, 0x5f, 0xbe, 0xaa, 0x1a, 0x22, 0x3e, 0xa7, 0x79, 0xde, 0xbc,
  0x26, 0xe8, 0xfe, 0x3e, 0xa1, 0xe8, 0x9e, 0xbe, 0x0b, 0x6e, 0xd8, 0xbe,
  0xa7, 0x6e, 0x32, 0x3e, 0x4f, 0xc2, 0x21, 0x3e, 0x95, 0x1a, 0xe5, 0x3d,
  0xc8, 0x61, 0x4f, 0x3d, 0x42, 0xab, 0x29, 0x3e, 0x70, 0x44, 0x37, 0x3d,
  0x71, 0x77, 0xca, 0x3d, 0x89, 0xf2, 0x0c, 0x3e, 0x6b, 0x05, 0x0a, 0xbd,
  0xa6, 0xdb, 0x68, 0x3d, 0x46, 0x21, 0x9a, 0xbe, 0x3d, 0xa5, 0x86, 0x3e,
  0x4b, 0xdc, 0x60, 0xbd, 0x96, 0xc1, 0x8a, 0x3e, 0xa1, 0xd8, 0xc9, 0xbd,
  0xb5, 0xc6, 0x0c, 0xbd, 0x21, 0x1a, 0x1e, 0x3e, 0x07, 0xa7, 0x82, 0x3e,
  0x69, 0xd5, 0x32, 0x3e, 0xa4, 0x18, 0xea, 0x3d, 0xed, 0xdb, 0x54, 0x3e,
  0x59, 0xc5, 0x2a, 0x3e, 0xc3, 0xe3, 0x0e, 0xbe, 0x28, 0xae, 0x94, 0x3e,
  0x4a, 0x4a, 0x8b, 0xbd, 0xba, 0x60, 0xe6, 0xbc, 0x51, 0x4f, 0xa7, 0xbd,
  0xc8, 0x51, 0x05, 0x3e, 0x96, 0x5f, 0x42, 0xbe, 0xfd, 0xab, 0x28, 0x3e,
  0xd8, 0x40, 0x19, 0xbf, 0x8d, 0x23, 0x16, 0xbe, 0xa1, 0x0e, 0xd5, 0xbd,
  0x98, 0xa2, 0x4a, 0x3e, 0x1a, 0x9e, 0x5b, 0x3d, 0x69, 0x8c, 0x16, 0xbd,
  0x93, 0xce, 0x42, 0xbe, 0x40, 0xd3, 0x6f, 0x3d, 0x5a, 0x31, 0x3a, 0x3e,
  0x10, 0x42, 0x90, 0xbe, 0xbc, 0x32, 0x1a, 0x3d, 0x2d, 0xd2, 0xeb, 0x3d,
  0x99, 0x7d, 0x16, 0xbe, 0xfc, 0x9a, 0x87, 0x3e, 0x59, 0x49, 0x9f, 0xbd,
  0x8c, 0x0c, 0x06, 0x3e, 0xa6, 0x2a, 0xe8, 0xbe, 0x9d, 0x5b, 0x8b, 0xbe,
  0xc9, 0xf6, 0x46, 0x3e, 0xca, 0xdf, 0xda, 0x3d, 0xb6, 0x91, 0xcf, 0x3d,
  0xb8, 0xfa, 0x8c, 0xbd, 0xae, 0x03, 0xf5, 0xbd, 0x32, 0x98, 0x99, 0xbd,
  0xdf, 0xa7, 0x45, 0xbe, 0x46, 0x14, 0x5c, 0x3d, 0x73, 0x01, 0x6c, 0xbd,
  0x58, 0xd7, 0x15, 0xbd, 0xc5, 0x89, 0x13, 0xbf, 0xfd, 0xb5, 0x9c, 0x3d,
  0xc0, 0x72, 0x9d, 0xbe, 0x43, 0x8d, 0x04, 0x3d, 0xf0, 0x02, 0xd3, 0xbe,
  0xa5, 0xb4, 0x01, 0xbe, 0x88, 0xf7, 0x8e, 0xbd, 0x25, 0xdc, 0x8f, 0x3e,
  0x94, 0x7f, 0x68, 0x3d, 0x3f, 0x1a, 0x32, 0xbe, 0xe8, 0x4a, 0xb4, 0xbd,
  0x83, 0xc4, 0x1b, 0x3d, 0xdf, 0xfd, 0x5c, 0xbb, 0x10, 0x3d, 0x99, 0xbe,
  0xba, 0x8b, 0x0b, 0xbe, 0xbf, 0x1c, 0x8d, 0x3d, 0x9e, 0x14, 0x76, 0xbe,
  0xb0, 0x1f, 0x80, 0xbc, 0x0f, 0x02, 0x89, 0xbd, 0x22, 0x01, 0x77, 0xbd,
  0x77, 0xfa, 0xb4, 0xbe, 0x5e, 0x91, 0x38, 0xbe, 0x49, 0xd6, 0x5f, 0xbd,
  0x63, 0x28, 0x58, 0xbe, 0x31, 0x43, 0x33, 0x3d, 0xbf, 0x7f, 0x1d, 0xbe,
  0xf8, 0xda, 0x55, 0x3c, 0xe9, 0x0f, 0xf7, 0xbc, 0xcc, 0x17, 0xdf, 0x3c,
  0xb1, 0xa2, 0x48, 0x3d, 0x2d, 0x07, 0x8e, 0x3e, 0x0e, 0x2e, 0xad, 0xbe,
  0x24, 0xe6, 0x0e, 0xbe, 0xd1, 0x18, 0x14, 0x3e, 0x7f, 0xb2, 0x23, 0xbe,
  0x42, 0x23, 0x26, 0xbe, 0x6f, 0xcf, 0xc7, 0xbd, 0x53, 0xdb, 0x99, 0xbd,
  0xf3, 0x1b, 0x65, 0x3c, 0x48, 0x82, 0x2e, 0xbe, 0x91, 0x5f, 0x49, 0xbe,
  0x91, 0x71, 0x4f, 0x3d, 0x5e, 0x4a, 0xe3, 0x3c, 0xba, 0x81, 0xdf, 0x3b,
  0x39, 0xd2, 0xb5, 0x3f, 0x8b, 0x33, 0xe9, 0x3e, 0xdd, 0x57, 0x11, 0x3f,
  0xf3, 0xc9, 0x8b, 0xbe, 0xff, 0xd5, 0x54, 0xbe, 0x75, 0xfd, 0x38, 0xbe,
  0xc9, 0xbc, 0x22, 0xbd, 0x02, 0xdb, 0x05, 0x3f, 0xc4, 0x7e, 0x41, 0xbe,
  0xb6, 0xdd, 0x14, 0xbe, 0xdd, 0xb2, 0x24, 0xbe, 0x45, 0x0b, 0x0e, 0xbe,
  0xac, 0xbf, 0xb4, 0xbc, 0x3d, 0x0a, 0x0d, 0x3c, 0x77, 0xe4, 0xde, 0xbc,
  0xe1, 0xcd, 0x14, 0xbe, 0xb3, 0x50, 0xb7, 0x3f, 0x87, 0xd8, 0xec, 0x3d,
  0x1e, 0xd5, 0x1c, 0x3f, 0x3f, 0x80, 0x34, 0x3d, 0x66, 0xbf, 0x32, 0xbe,
  0x18, 0x5d, 0x89, 0xbe, 0xf9, 0xc6, 0x95, 0xbe, 0x84, 0xa6, 0x19, 0x3e,
  0x5b, 0xfc, 0xe1, 0xbe, 0xae, 0x4e, 0xef, 0xbd, 0x80, 0xdb, 0x78, 0xbe,
  0xf1, 0x61, 0xc2, 0xbd, 0xb0, 0x5a, 0xa1, 0xbb, 0x43, 0x97, 0x3f, 0x3d,
  0x45, 0xf0, 0xc0, 0xbc, 0xd2, 0xdd, 0x07, 0xbe, 0xe0, 0x13, 0xa3, 0x3f,
  0xfa, 0xfe, 0x4d, 0x3e, 0xb5, 0x10, 0x64, 0x3e, 0xd9, 0x1d, 0xc8, 0xbd,
  0xce, 0xac, 0xec, 0xbd, 0xba, 0xeb, 0x10, 0xbb, 0x1f, 0xb7, 0x4a, 0xbe,
  0xea, 0xff, 0xde, 0x3b, 0x86, 0x5a, 0xc9, 0xbe, 0x94, 0x40, 0x13, 0xbe,
  0x02, 0x19, 0x08, 0xbe, 0xce, 0xbf, 0x0c, 0xbe, 0x7f, 0xd8, 0x3b, 0x3d,
  0x69, 0x3d, 0x01, 0x3e, 0xe8, 0x9e, 0xfe, 0x3c, 0x8c, 0xb1, 0x61, 0xbe,
  0xe1, 0xdb, 0x82, 0x3f, 0x7c, 0x95, 0x86, 0x3e, 0x92, 0x94, 0x91, 0x3e,
  0xa1, 0xea, 0x64, 0xbe, 0x17, 0x8a, 0xda, 0xbc, 0x01, 0x76, 0x3d, 0xbb,
  0x08, 0x99, 0x14, 0x3e, 0xab, 0x54, 0x29, 0xbc, 0x83, 0xc0, 0xac, 0xbe,
  0x9e, 0xe9, 0x69, 0x3d, 0xf3, 0xfd, 0x97, 0xbd, 0xb5, 0x03, 0x54, 0xbe,
  0x0d, 0x8a, 0x1e, 0x3d, 0x25, 0xae, 0x14, 0xbe, 0x55, 0xd4, 0x73, 0x3e,
  0x39, 0xa0, 0x48, 0xbe, 0x30, 0x64, 0xca, 0x3f, 0xcd, 0xb2, 0x85, 0x3e,
  0x1e, 0xcf, 0x00, 0x3f, 0x7a, 0x0f, 0xbf, 0xbd, 0x4a, 0x95, 0xbe, 0xbe,
  0xd9, 0xee, 0x24, 0xbe, 0x64, 0x4a, 0x2c, 0xbd, 0xdf, 0xae, 0x3e, 0xbe,
  0xa3, 0x50, 0x74, 0xbe, 0xb2, 0x9b, 0xbe, 0xbe, 0xab, 0x27, 0x7d, 0xbe,
  0x2c, 0x59, 0x26, 0xbe, 0x58, 0xe1, 0x74, 0xbe, 0xd4, 0x0e, 0x52, 0xbe,
  0xbf, 0x21, 0x52, 0xbd, 0xab, 0x4a, 0x5d, 0xbe, 0xf1, 0x22, 0xbc, 0x3e,
  0x6c, 0x44, 0x04, 0xbd, 0x2e, 0xb3, 0x9f, 0x3e, 0x69, 0xc2, 0x88, 0xbe,
  0x12, 0x36, 0x0a, 0xbd, 0x99, 0x90, 0x78, 0x3e, 0x35, 0x0e, 0x0a, 0xbd,
  0xd1, 0x65, 0xf6, 0xbe, 0x98, 0x4f, 0x93, 0xbd, 0x01, 0x1d, 0x2d, 0xbe,
  0xf1, 0x16, 0x23, 0xbe, 0x8b, 0x34, 0x8a, 0xbe, 0xba, 0xce, 0xf9, 0xbe,
  0xe3, 0x62, 0x0f, 0x3e, 0x87, 0x78, 0x45, 0x3e, 0x1f, 0x49, 0xa0, 0xbe,
  0xd5, 0xd1, 0x52, 0xbe, 0x14, 0x7a, 0x2f, 0xbe, 0x3b, 0x27, 0x5d, 0x3e,
  0xe6, 0x47, 0xb8, 0xbd, 0xae, 0x75, 0xf6, 0xbd, 0xca, 0xe8, 0xee, 0x3d,
  0xee, 0xfa, 0x04, 0x3e, 0x43, 0xb3, 0xaf, 0x3d, 0xf3, 0x76, 0x4f, 0x3d,
  0x9e, 0x45, 0xb8, 0xbd, 0xc0, 0x9e, 0x24, 0xbe, 0xf7, 0xde, 0x09, 0xbe,
  0x10, 0xdb, 0x5f, 0xbe, 0x4e, 0x7b, 0xbf, 0x3d, 0x1f, 0x7b, 0x29, 0x3d,
  0x94, 0xde, 0x17, 0xbe, 0x65, 0xff, 0xe1, 0x3f, 0x80, 0xba, 0xc3, 0x3d,
  0xf1, 0xb2, 0xbf, 0x3e, 0x6a, 0x0b, 0x53, 0x3d, 0x01, 0xfb, 0x8d, 0xbd,
  0xba, 0x82, 0x59, 0x3e, 0xf6, 0x44, 0xc1, 0x3e, 0x83, 0x5c, 0x20, 0xbe,
  0x4d, 0x84, 0x89, 0x3c, 0xf5, 0x0b, 0x1c, 0xbe, 0x7f, 0x13, 0x1f, 0xbe,
  0x32, 0x60, 0xdf, 0xbd, 0x22, 0x54, 0x6a, 0xbd, 0x33, 0xc0, 0xdc, 0x3d,
  0xe8, 0xbd, 0x66, 0xbe, 0x7a, 0x08, 0x8a, 0xbe, 0x0f, 0x36, 0x06, 0x40,
  0xfa, 0x23, 0xd5, 0x3e, 0x2c, 0x77, 0xe8, 0x3e, 0xf8, 0xbc, 0x0b, 0x3e,
  0xdb, 0xc3, 0x11, 0xbc, 0x93, 0x39, 0x62, 0x3d, 0x48, 0x07, 0x9e, 0x3e,
  0x21, 0xe6, 0xb2, 0xbe, 0xcd, 0xaa, 0xda, 0xbd, 0xd3, 0x25, 0xc1, 0x3c,
  0x22, 0x7b, 0x58, 0xbe, 0x18, 0xf9, 0xce, 0xbe, 0xf2, 0x7a, 0xdc, 0xbe,
  0xf4, 0x0a, 0xc9, 0x3d, 0x8f, 0x13, 0x07, 0x3e, 0x28, 0xbe, 0x23, 0xbe,
  0x92, 0x41, 0xbc, 0x3f, 0x0e, 0xc4, 0xdf, 0x3e, 0xac, 0x0d, 0xcb, 0x3e,
  0xfe, 0xdc, 0x36, 0x3d, 0x5b, 0xb0, 0x82, 0x3c, 0xb0, 0x45, 0x45, 0x3e,
  0xb3, 0x01, 0x39, 0x3e, 0x20, 0xcf, 0x43, 0xbe, 0x39, 0x34, 0xfa, 0x3c,
  0x8c, 0x23, 0xb8, 0x3b, 0x78, 0x10, 0x4f, 0xbd, 0x60, 0x11, 0xf2, 0xbd,
  0x7f, 0x24, 0xc0, 0xbe, 0x32, 0x50, 0xb7, 0x3d, 0x19, 0x7f, 0xfb, 0xbd,
  0xa4, 0x99, 0x1d, 0xbd, 0x03, 0x2d, 0xc8, 0x3f, 0xaa, 0xc7, 0x6e, 0x3e,
  0xbc, 0x38, 0x1a, 0x3f, 0x6a, 0x62, 0x3a, 0x3d, 0x9b, 0x76, 0xfb, 0x3c,
  0x8f, 0x79, 0x8c, 0x3e, 0x20, 0x6f, 0x6e, 0x3d, 0x3d, 0x19, 0x4b, 0xbe,
  0xcc, 0xd7, 0xd4, 0xbb, 0x4d, 0xba, 0x0d, 0x3e, 0x01, 0x92, 0x98, 0x3b,
  0x6a, 0x65, 0x6b, 0xbe, 0xf3, 0x83, 0x23, 0xbe, 0x0a, 0x6c, 0xdc, 0x3d,
  0x77, 0x0a, 0xe7, 0xbd, 0x58, 0x9b, 0xa3, 0xbe, 0xee, 0xe8, 0x55, 0x3f,
  0x87, 0x14, 0x1e, 0x3b, 0xe8, 0xf7, 0x18, 0x3f, 0x1d, 0x21, 0xb6, 0x3c,
  0x17, 0xed, 0x4d, 0x3d, 0xae, 0xd6, 0xe6, 0xbd, 0x74, 0x99, 0xf1, 0x3d,
  0x28, 0xda, 0x88, 0xbd, 0xbb, 0x2e, 0x5a, 0xbc, 0x2b, 0xfe, 0x04, 0xbd,
  0xc8, 0xcc, 0x37, 0x3d, 0xe4, 0x9f, 0x8f, 0xbd, 0x57, 0x95, 0xd5, 0xbd,
  0x4e, 0xaf, 0xce, 0xbd, 0x0e, 0x14, 0x05, 0xbd, 0x83, 0x0a, 0x98, 0xbe,
  0xb2, 0x7f, 0x92, 0x3d, 0xca, 0x2f, 0xe8, 0x3c, 0xcc, 0xc3, 0xfa, 0x3d,
  0x0d, 0xef, 0xaa, 0xbb, 0xae, 0xec, 0x01, 0xbd, 0x95, 0xcd, 0x83, 0x3e,
  0x9f, 0x18, 0x72, 0xbd, 0x98, 0x44, 0x2f, 0xbf, 0xba, 0x4b, 0x5b, 0x3d,
  0x87, 0xeb, 0x66, 0xbc, 0x9f, 0xe1, 0x1b, 0xbe, 0xbc, 0xd5, 0x23, 0xbe,
  0xd0, 0xf1, 0x05, 0xbf, 0x2a, 0xee, 0x6b, 0x3d, 0xee, 0xb9, 0x00, 0x3e,
  0xc8, 0x52, 0xd1, 0xbe, 0xd3, 0x29, 0x8e, 0xbe, 0x60, 0x31, 0xc9, 0xbd,
  0x52, 0xe3, 0x22, 0x3f, 0x22, 0x95, 0xb5, 0xbd, 0xa5, 0xdc, 0xb1, 0xbc,
  0x69, 0x27, 0x32, 0x3e, 0x67, 0xa7, 0x38, 0x3e, 0x11, 0x99, 0x55, 0xbe,
  0x55, 0xc6, 0x81, 0x3c, 0xba, 0xba, 0x81, 0x3d, 0xcc, 0x11, 0x99, 0xbe,
  0xb4, 0xb5, 0xfa, 0xbd, 0xa3, 0xef, 0xc1, 0xbe, 0x07, 0xc2, 0x59, 0x3d,
  0x3e, 0xf8, 0x50, 0x3e, 0x29, 0x73, 0x67, 0xbe, 0x8d, 0xd4, 0xbc, 0x3f,
  0x1b, 0xe7, 0xfe, 0x3d, 0xa2, 0xcb, 0xd7, 0x3e, 0x53, 0x1e, 0x72, 0x3e,
  0xa5, 0xd7, 0x89, 0x3c, 0xd4, 0x2e, 0x77, 0x3e, 0x81, 0xa6, 0x96, 0x3e,
  0x58, 0x8b, 0x1d, 0xbd, 0x9a, 0xd8, 0xad, 0x3c, 0x31, 0x20, 0x97, 0xbe,
  0xd1, 0xeb, 0x6f, 0xbe, 0xbd, 0x10, 0x7e, 0xbe, 0x3c, 0xc1, 0xce, 0xbe,
  0x4a, 0xe0, 0xc9, 0xbc, 0x41, 0x8e, 0x13, 0xbe, 0xac, 0x21, 0xf0, 0xbd,
  0x49, 0xfc, 0xb7, 0x3f, 0x99, 0x8d, 0xb2, 0x3d, 0x9c, 0x6f, 0x06, 0x3f,
  0xc0, 0x5b, 0x0f, 0x3e, 0xe2, 0xae, 0x6a, 0xbb, 0x28, 0x36, 0xbf, 0xbc,
  0x4c, 0xf2, 0x8f, 0x3e, 0x2e, 0xef, 0x0b, 0xbf, 0x32, 0xed, 0x9d, 0x3c,
  0x50, 0x9c, 0x64, 0xbe, 0xa0, 0x83, 0x58, 0xbd, 0x3b, 0xfd, 0x93, 0xbe,
  0x15, 0xef, 0x05, 0xbf, 0xd7, 0xf4, 0x30, 0x3e, 0xf9, 0x74, 0xe6, 0xbd,
  0x48, 0x99, 0xb7, 0xbd, 0x8f, 0x48, 0x9f, 0x3f, 0x11, 0x95, 0xf2, 0x3d,
  0xa1, 0x20, 0xa1, 0x3e, 0xd9, 0x70, 0x49, 0x3e, 0xc7, 0x14, 0x2a, 0xbd,
  0xf1, 0xdf, 0x1c, 0x3e, 0x4e, 0xc8, 0xee, 0x3d, 0xa9, 0xea, 0x6c, 0xbf,
  0xa7, 0xd3, 0xf5, 0xbd, 0x04, 0xcc, 0x0c, 0xbd, 0x15, 0x7d, 0x60, 0xbc,
  0x12, 0x6a, 0x56, 0xbe, 0x7a, 0x2d, 0xe7, 0xbe, 0x29, 0xbb, 0x2c, 0x3e,
  0x27, 0xb5, 0x0f, 0xbe, 0x7a, 0x3c, 0x72, 0xbd, 0xbf, 0xd9, 0xbe, 0x3f,
  0x09, 0xa3, 0xfe, 0xbd, 0x9b, 0x7e, 0x3b, 0x3e, 0x76, 0x5a, 0x47, 0xbd,
  0x62, 0xc7, 0xe0, 0x3b, 0x42, 0xf1, 0x93, 0x3e, 0x7d, 0xbb, 0xda, 0x3d,
  0xa0, 0xa3, 0x9d, 0xbe, 0x28, 0x35, 0xd5, 0x3d, 0xc7, 0x09, 0x25, 0x3e,
  0x3a, 0x9e, 0xa6, 0xbd, 0x0f, 0x25, 0xad, 0xbe, 0x31, 0x75, 0x0a, 0xbf,
  0x8d, 0x1b, 0xa4, 0x3d, 0xad, 0xf7, 0x06, 0xbe, 0xbe, 0x96, 0x04, 0xbf,
  0x1b, 0x4b, 0x6f, 0x3f, 0x7d, 0x42, 0xc3, 0xbd, 0xf9, 0xb1, 0x11, 0x3f,
  0xc8, 0x1b, 0x17, 0xbd, 0x8f, 0xca, 0x8c, 0xbd, 0x9c, 0xc0, 0x13, 0x3e,
  0xe9, 0x27, 0xe4, 0x3d, 0xa2, 0x23, 0x5a, 0xbe, 0x4b, 0x8c, 0x1c, 0xbd,
  0xf0, 0xdc, 0x4f, 0xbd, 0x74, 0x38, 0x54, 0xbe, 0x48, 0xa4, 0x06, 0xbe,
  0x16, 0xb7, 0xb8, 0xbb, 0x2a, 0xb1, 0x02, 0x3d, 0x75, 0xd1, 0x73, 0xbe,
  0x06, 0x99, 0x92, 0xbe, 0x66, 0xf7, 0x02, 0xbc, 0x72, 0xe3, 0x6c, 0xbe,
  0x39, 0x17, 0xe1, 0xbc, 0x47, 0x13, 0xcd, 0x3d, 0xea, 0x22, 0x5b, 0xbe,
  0xe0, 0xd6, 0x0d, 0x3d, 0xff, 0xe2, 0x68, 0x3d, 0xd1, 0x42, 0xac, 0xbc,
  0x7e, 0x78, 0x01, 0xbf, 0x36, 0x3b, 0x5d, 0xbe, 0x65, 0x33, 0x7a, 0xbe,
  0x7f, 0x37, 0xf3, 0x3d, 0x0e, 0x77, 0x62, 0xbe, 0x0d, 0x0f, 0x84, 0xbd,
  0x8d, 0xb8, 0x53, 0x3d, 0x56, 0x37, 0x44, 0xbd, 0x68, 0x95, 0x40, 0x3d,
  0xc7, 0x1c, 0xa5, 0x3e, 0xfa, 0x99, 0x32, 0x3f, 0x4f, 0xa6, 0x53, 0xbe,
  0x3a, 0xd0, 0x3c, 0xbd, 0x18, 0x2c, 0x53, 0xbe, 0xa6, 0x21, 0xe1, 0x3c,
  0x31, 0xc6, 0xb4, 0xbc, 0x05, 0x88, 0x88, 0xbe, 0xf6, 0xd2, 0xd4, 0x3d,
  0x11, 0xdb, 0x9a, 0x3c, 0xe2, 0x71, 0x21, 0xbe, 0x36, 0xc5, 0x3d, 0xbe,
  0xa4, 0x11, 0x79, 0xbe, 0xf9, 0x71, 0x73, 0x3e, 0x9e, 0x18, 0x1e, 0xbc,
  0x5a, 0x61, 0xd6, 0x3f, 0xa1, 0xb0, 0x45, 0x3f, 0x6a, 0x1d, 0x26, 0x3f,
  0xaf, 0xdc, 0xe7, 0xbd, 0xc2, 0x53, 0x22, 0xbc, 0xb8, 0x01, 0x2e, 0x3e,
  0x85, 0x31, 0x5e, 0xbe, 0x31, 0x23, 0x35, 0x3d, 0x93, 0x56, 0x73, 0xbe,
  0x09, 0xa1, 0x81, 0xbc, 0xfe, 0x12, 0xf1, 0x3d, 0x38, 0x90, 0x8e, 0xbc,
  0xbe, 0xd9, 0xa3, 0xbd, 0x88, 0xf0, 0x94, 0xbd, 0xa0, 0x9f, 0xe0, 0xbd,
  0xac, 0x09, 0x81, 0xbe, 0x78, 0x9b, 0x03, 0x40, 0xb3, 0x75, 0x53, 0x3f,
  0x78, 0xff, 0x14, 0x3f, 0x1e, 0x8b, 0xa1, 0x3d, 0x9d, 0xec, 0x86, 0xbe,
  0x9b, 0x46, 0x54, 0xbe, 0xfd, 0xeb, 0xb9, 0xbd, 0x17, 0x67, 0xf4, 0xbd,
  0x90, 0x90, 0x85, 0xbe, 0xbb, 0xb5, 0x63, 0xbe, 0xee, 0x00, 0x4a, 0xbe,
  0x3c, 0xc4, 0x38, 0x3d, 0xeb, 0xe8, 0x5f, 0xbd, 0x3f, 0x82, 0x24, 0xbe,
  0x2d, 0x6f, 0x34, 0x3e, 0x07, 0x03, 0xd5, 0xbd, 0x6a, 0xc6, 0xea, 0x3f,
  0xf3, 0xdf, 0x43, 0x3f, 0x7c, 0xe9, 0x76, 0x3f, 0x0a, 0x9f, 0xb7, 0x3c,
  0xf0, 0x02, 0xc8, 0xb8, 0x72, 0x9e, 0x22, 0xbe, 0xc0, 0x94, 0xd6, 0x3c,
  0x59, 0x30, 0xe5, 0xbd, 0x68, 0xb9, 0xb2, 0xbe, 0xf3, 0x3c, 0x9e, 0xbd,
  0xd3, 0x7e, 0xef, 0xbd, 0x3d, 0x59, 0x20, 0x3d, 0x2d, 0xf5, 0x0e, 0xbe,
  0x10, 0xbc, 0x00, 0xbe, 0x09, 0x02, 0x0d, 0x3e, 0xaf, 0xe8, 0x87, 0xbd,
  0x1a, 0x76, 0x05, 0x40, 0x15, 0xd3, 0xc5, 0x3e, 0xdf, 0xf9, 0x61, 0x3f,
  0xfc, 0x68, 0x0d, 0xbe, 0x95, 0x70, 0x01, 0xbe, 0x5a, 0x37, 0x1d, 0x3e,
  0xc9, 0x25, 0xe8, 0xbd, 0xa1, 0x8c, 0xe7, 0x3d, 0xc5, 0xf9, 0x79, 0xbe,
  0xd8, 0x40, 0x21, 0x3c, 0xd5, 0x6d, 0x30, 0xbe, 0x93, 0x08, 0x41, 0xbe,
  0x71, 0xba, 0x2f, 0xbb, 0x33, 0xe8, 0x1b, 0x3c, 0x57, 0x2a, 0x5e, 0xbd,
  0xaa, 0x26, 0x5e, 0x3d, 0x72, 0x84, 0xec, 0x3f, 0xa2, 0x9b, 0x37, 0x3e,
  0x8b, 0xd9, 0x1e, 0x3f, 0xaf, 0x92, 0xc7, 0x3c, 0x7a, 0x71, 0xa6, 0xbe,
  0x4e, 0xe0, 0x04, 0xbd, 0xb0, 0x5f, 0x7a, 0xbe, 0x4f, 0xa7, 0x62, 0xbd,
  0xb8, 0x26, 0xe2, 0xbe, 0xa1, 0x65, 0x88, 0xbe, 0x2e, 0x26, 0x2c, 0xbe,
  0xa8, 0x2d, 0xa6, 0x3d, 0x09, 0x94, 0x96, 0xba, 0x75, 0xfa, 0xa3, 0xbe,
  0x33, 0x02, 0x95, 0xbd, 0x10, 0xba, 0xa1, 0xbe, 0xe9, 0xda, 0xf9, 0x3e,
  0x8a, 0x3f, 0x34, 0x3d, 0x8e, 0x23, 0xc9, 0x3d, 0x84, 0x19, 0x92, 0xbe,
  0x5a, 0x1e, 0x9b, 0xbd, 0x79, 0x20, 0x49, 0xbd, 0x7e, 0x29, 0xc5, 0x3d,
  0xe7, 0x73, 0x6b, 0xbd, 0xa5, 0x2a, 0x86, 0x3d, 0x2d, 0x2e, 0x83, 0x3d,
  0xea, 0xaa, 0x80, 0xbc, 0x19, 0xf4, 0x01, 0x3e, 0x23, 0x76, 0x08, 0x3d,
  0x78, 0x29, 0x96, 0x3c, 0x52, 0x25, 0x29, 0xbe, 0xcd, 0x7e, 0x6a, 0x3e,
  0x45, 0xe7, 0x97, 0xbe, 0x2d, 0x8e, 0xe3, 0x3e, 0xd7, 0x6c, 0xc0, 0x3e,
  0x67, 0x8d, 0x23, 0xbc, 0x88, 0xb1, 0x9a, 0xbd, 0x78, 0xc4, 0x1c, 0xbe,
  0x33, 0x1c, 0x54, 0xbd, 0xdf, 0x1b, 0x23, 0xbf, 0x56, 0x9b, 0x02, 0xbe,
  0x52, 0x7d, 0x1b, 0x3e, 0xbe, 0x36, 0x93, 0xbc, 0xec, 0x81, 0xef, 0xbd,
  0x28, 0x36, 0x89, 0x3c, 0x35, 0x5b, 0x7d, 0xbd, 0x94, 0xb3, 0x2b, 0xbe,
  0x77, 0xac, 0x28, 0x3e, 0xfd, 0xc4, 0x1b, 0x3f, 0xf1, 0xce, 0x9b, 0x3e,
  0x72, 0xb0, 0x91, 0x3e, 0x74, 0x64, 0xd9, 0x3d, 0xea, 0x4d, 0x89, 0xbc,
  0x48, 0x29, 0x95, 0xbe, 0x70, 0xa2, 0x0e, 0xbf, 0x3c, 0x87, 0xe0, 0xbe,
  0x26, 0x9e, 0x96, 0xbd, 0x51, 0x04, 0xe1, 0x3c, 0xc5, 0xc5, 0x00, 0x3d,
  0xba, 0x91, 0xec, 0xbe, 0x6d, 0x1e, 0x91, 0xbe, 0xea, 0x92, 0x25, 0x3e,
  0x8a, 0xc9, 0xc5, 0xbd, 0x07, 0x02, 0xaa, 0xbe, 0xf7, 0xf3, 0x4e, 0x3f,
  0x98, 0x67, 0x21, 0xbe, 0xda, 0xee, 0x70, 0x3e, 0x63, 0x91, 0xf6, 0x3c,
  0x94, 0x11, 0x4b, 0xbd, 0x05, 0xa9, 0xd7, 0xbe, 0x83, 0xa4, 0xeb, 0xbe,
  0xaa, 0x29, 0x92, 0xbe, 0x41, 0x7f, 0x2c, 0x3c, 0xe8, 0xad, 0x81, 0xbd,
  0x58, 0x21, 0x5b, 0x3d, 0x47, 0x30, 0xd5, 0xbe, 0x79, 0xf5, 0x3c, 0xbe,
  0x02, 0xf2, 0x18, 0xbf, 0xcb, 0x43, 0x0a, 0xbd, 0xce, 0x19, 0x0f, 0xbf,
  0xc8, 0x02, 0x50, 0x3f, 0x16, 0x39, 0xca, 0xbc, 0x39, 0xb0, 0xb2, 0x3e,
  0x50, 0x76, 0x63, 0xbf, 0x7c, 0x29, 0xef, 0xbc, 0xbe, 0x7d, 0xa1, 0xbe,
  0xd1, 0x07, 0xab, 0x3c, 0x70, 0x08, 0xa6, 0x3e, 0xc4, 0x57, 0x58, 0x3d,
  0x80, 0x24, 0xc0, 0xbc, 0x59, 0x58, 0xbd, 0x3c, 0xf9, 0xc5, 0x93, 0xbe,
  0x96, 0x3d, 0x5b, 0xbd, 0xc9, 0xb0, 0xcd, 0xbe, 0x43, 0x15, 0xac, 0x3d,
  0x60, 0xde, 0x65, 0x3e, 0x1b, 0x49, 0x29, 0x3f, 0x37, 0x18, 0x83, 0x3f,
  0x54, 0xfc, 0xbe, 0x3d, 0x9a, 0x99, 0x67, 0x3d, 0xa3, 0xce, 0xd3, 0xbb,
  0x14, 0x6e, 0xb0, 0xbe, 0x3a, 0xbc, 0x09, 0x3d, 0x8f, 0xa5, 0x8a, 0x3d,
  0xa2, 0x5c, 0x11, 0x3e, 0x10, 0x3c, 0xde, 0xbb, 0xf2, 0x3c, 0xae, 0x3c,
  0xa9, 0xe9, 0x14, 0x3e, 0x6a, 0x77, 0x0f, 0x3e, 0x60, 0x6d, 0x0a, 0xbe,
  0xc2, 0xe3, 0x2a, 0xbd, 0x08, 0x0a, 0xd3, 0x3d, 0xa8, 0x51, 0xcd, 0x3e,
  0x17, 0x16, 0xf3, 0x3e, 0xd6, 0x75, 0x89, 0x3d, 0x2a, 0x4d, 0xdc, 0x3d,
  0x12, 0xf1, 0x11, 0xbd, 0x5b, 0xed, 0x0f, 0xbe, 0x81, 0xf4, 0xe2, 0x3c,
  0xc3, 0x4f, 0x26, 0x3e, 0x39, 0xcc, 0x44, 0x3c, 0x8e, 0xde, 0x04, 0xbe,
  0x41, 0x82, 0x2f, 0xbe, 0x8a, 0x8b, 0xc3, 0x3d, 0xdd, 0x23, 0x0f, 0x3d,
  0x4d, 0x39, 0xfe, 0x3c, 0x14, 0xa4, 0x78, 0xbe, 0x1a, 0xd0, 0x4f, 0xbc,
  0xd7, 0xd6, 0x84, 0xbe, 0xfc, 0xd1, 0x51, 0x3b, 0xa5, 0x5c, 0xe9, 0xbd,
  0x41, 0x57, 0x22, 0x3e, 0x7a, 0xd5, 0x46, 0xbe, 0x0b, 0x41, 0x49, 0xbd,
  0x50, 0xa2, 0xa1, 0xbe, 0x61, 0x0e, 0xa9, 0xbe, 0xaf, 0xf9, 0xa2, 0xbc,
  0xd4, 0xcb, 0x1f, 0x3e, 0x55, 0x1f, 0xa5, 0x3b, 0xa9, 0x7b, 0x4a, 0xbe,
  0x58, 0x7d, 0x50, 0xbe, 0x1c, 0x1b, 0x58, 0xbe, 0x42, 0x49, 0x81, 0x3d,
  0x2d, 0x92, 0x12, 0xbc, 0xe7, 0xc2, 0xd6, 0x3c, 0xb8, 0x91, 0x84, 0xbe,
  0xb2, 0x2f, 0x3a, 0x3e, 0x5a, 0xa2, 0x13, 0xbe, 0x35, 0x83, 0x5f, 0xbe,
  0x6d, 0x85, 0x9c, 0xbe, 0x13, 0x7d, 0x7f, 0xbe, 0xb1, 0x01, 0x04, 0xbe,
  0x72, 0x4a, 0x4c, 0xbc, 0x6a, 0xe1, 0xdc, 0xbc, 0xb1, 0x33, 0x0b, 0x3e,
  0xaf, 0x8a, 0x9a, 0xbd, 0x91, 0x60, 0x14, 0xbe, 0xe4, 0x9a, 0x81, 0xbe,
  0x39, 0x31, 0xe6, 0x3d, 0x4c, 0x73, 0x44, 0xbe, 0x8d, 0x52, 0x34, 0xbe,
  0xf7, 0x68, 0x55, 0xbe, 0xa5, 0x4d, 0xc2, 0xbd, 0x00, 0xfa, 0xfb, 0xbd,
  0x9a, 0xc8, 0xe5, 0xbe, 0x8d, 0xa6, 0x07, 0xbe, 0xff, 0x95, 0xfc, 0xbd,
  0xb7, 0xc5, 0x00, 0xbe, 0x92, 0xcb, 0x04, 0x3e, 0x85, 0x22, 0x8f, 0x3d,
  0x76, 0x18, 0x49, 0xbc, 0xaf, 0x0c, 0x3d, 0xbd, 0x8b, 0xd1, 0x73, 0x3d,
  0x95, 0x71, 0x2b, 0xbe, 0xed, 0x02, 0x62, 0xbc, 0xe5, 0xe2, 0x72, 0x3b,
  0xbe, 0x8c, 0x75, 0xbe, 0x34, 0x95, 0x0f, 0x3c, 0xbb, 0xbd, 0x43, 0xbd,
  0x82, 0xbb, 0x9d, 0xbd, 0xc1, 0xd2, 0x74, 0xbe, 0xd8, 0x09, 0xae, 0x3d,
  0x3f, 0x0a, 0x24, 0xbd, 0x56, 0x33, 0x2c, 0x3d, 0xdf, 0x12, 0xc5, 0x3d,
  0x09, 0x7b, 0xa5, 0xbc, 0x7c, 0xc0, 0x58, 0xbd, 0x82, 0x41, 0x74, 0xbe,
  0x50, 0x3a, 0xc9, 0x3d, 0x5c, 0x40, 0x6c, 0xbc, 0x7d, 0xd9, 0x00, 0x3e,
  0x94, 0x4b, 0xd4, 0x3d, 0x41, 0x0d, 0x11, 0xbe, 0xf0, 0x9e, 0x13, 0xbd,
  0x31, 0x87, 0x22, 0x3e, 0xcb, 0x40, 0x1d, 0xbe, 0x3d, 0x69, 0x80, 0xbe,
  0xce, 0x45, 0x70, 0xbe, 0xfd, 0x83, 0xf0, 0xbd, 0x2c, 0x6a, 0xad, 0xbd,
  0xf2, 0xc3, 0x66, 0x3c, 0x5a, 0x9b, 0xb8, 0x3c, 0x32, 0xf0, 0x99, 0x3c,
  0xf2, 0xf6, 0x9f, 0xbe, 0x27, 0xbd, 0xa4, 0x3e, 0x2e, 0xdc, 0x15, 0xbe,
  0xbd, 0x75, 0x32, 0x3c, 0x01, 0xe4, 0x01, 0x3e, 0x05, 0xe0, 0x8d, 0xbe,
  0x53, 0x4a, 0x88, 0xbc, 0xb9, 0xe5, 0xef, 0xbd, 0x50, 0x63, 0xee, 0x3d,
  0xa6, 0x47, 0x72, 0xbe, 0x90, 0x4a, 0x31, 0xbe, 0x0e, 0xae, 0x23, 0xbe,
  0x83, 0xc0, 0x26, 0xbe, 0xa5, 0xf4, 0x2e, 0x3d, 0xcc, 0x15, 0xd8, 0xbd,
  0x15, 0x13, 0x31, 0xbd, 0x64, 0x3e, 0x3d, 0xbe, 0xd9, 0xc2, 0x08, 0x3e,
  0xee, 0x23, 0x14, 0xbe, 0x1e, 0x3a, 0xb2, 0x3d, 0x25, 0xe6, 0x2d, 0x3e,
  0x03, 0xbf, 0x00, 0xbe, 0x15, 0x3b, 0x9b, 0xbe, 0xfb, 0xbd, 0xc1, 0xba,
  0x17, 0x23, 0x9d, 0x3c, 0x07, 0xd0, 0xd8, 0xbb, 0x9f, 0x96, 0x16, 0xbe,
  0xe3, 0x48, 0x3c, 0xbd, 0x6e, 0x52, 0xf3, 0x3c, 0x11, 0x32, 0x26, 0x3d,
  0x99, 0xae, 0x6f, 0xbe, 0xc6, 0x48, 0xd9, 0xbd, 0xb9, 0x9e, 0xa8, 0xbd,
  0x94, 0x4e, 0xe2, 0x3d, 0xa6, 0x00, 0x61, 0x3c, 0x4a, 0x8a, 0x3f, 0x3d,
  0xf0, 0x8f, 0x32, 0xbb, 0x01, 0xc4, 0x74, 0xbd, 0xd5, 0x42, 0xe9, 0xbd,
  0x4d, 0xbb, 0xa8, 0xbe, 0x4c, 0xa0, 0xa1, 0x3d, 0x89, 0xde, 0xc2, 0x3c,
  0x51, 0x8d, 0x82, 0xbd, 0x67, 0xd6, 0x00, 0x3e, 0x56, 0x8c, 0x44, 0x3e,
  0x96, 0x2f, 0x52, 0xbd, 0x5a, 0x16, 0xc2, 0x3d, 0x76, 0x4a, 0x11, 0x3b,
  0xdb, 0x35, 0xb1, 0x3e, 0xfd, 0x58, 0xfe, 0x3c, 0xd2, 0x6d, 0x57, 0xbd,
  0x08, 0xc6, 0x51, 0xbd, 0x3f, 0xf6, 0x28, 0x3e, 0x1b, 0x46, 0xa3, 0x3e,
  0xe4, 0xef, 0xf3, 0x3e, 0xca, 0x83, 0x48, 0x3e, 0x70, 0x2e, 0x03, 0xbd,
  0x7d, 0xe2, 0xcc, 0x3c, 0xe0, 0x8b, 0x14, 0xbd, 0x26, 0x54, 0x94, 0xbe,
  0x63, 0x6b, 0x44, 0xbd, 0xe6, 0xe9, 0x94, 0x3d, 0x92, 0x29, 0x86, 0xbe,
  0xe6, 0x37, 0x0d, 0x3d, 0xcf, 0x8d, 0xb5, 0xbe, 0x9b, 0x94, 0x82, 0x3b,
  0xfa, 0x54, 0xfd, 0x3c, 0x13, 0xf1, 0x81, 0x3e, 0xb4, 0x40, 0x64, 0xbe,
  0xf5, 0x4f, 0x01, 0xbf, 0x4d, 0x59, 0x7a, 0xbe, 0xdb, 0x46, 0x32, 0x3e,
  0xc9, 0x90, 0x8b, 0xbe, 0xd7, 0xb2, 0x48, 0x3d, 0x50, 0x27, 0x8f, 0xbe,
  0xb1, 0x94, 0xd6, 0xbe, 0x0f, 0x30, 0x78, 0xbe, 0xa7, 0x96, 0x70, 0xbe,
  0xfa, 0x60, 0x23, 0x3e, 0x1a, 0x84, 0x92, 0xbd, 0x71, 0xe7, 0x23, 0xbe,
  0x18, 0xff, 0x2e, 0x3e, 0x74, 0x12, 0xca, 0x3b, 0x8f, 0xb8, 0xde, 0xbc,
  0x8a, 0xb1, 0xae, 0xbd, 0x82, 0xb8, 0xa6, 0xbe, 0x46, 0x1f, 0x80, 0xbe,
  0x80, 0x4f, 0x42, 0xbd, 0x64, 0x86, 0xa3, 0xbe, 0x6e, 0x7c, 0x05, 0x3d,
  0x76, 0xd9, 0x66, 0xbd, 0x7c, 0x27, 0x80, 0xbe, 0xe7, 0x99, 0x61, 0x3e,
  0x99, 0x12, 0x34, 0xbe, 0x65, 0xfd, 0xa0, 0xbd, 0xdc, 0x16, 0x87, 0xbd,
  0xc7, 0xb4, 0xb5, 0xbc, 0xfa, 0xad, 0x27, 0x3d, 0xfc, 0x1f, 0xca, 0xbd,
  0x5f, 0xc3, 0xb4, 0x3e, 0x42, 0x47, 0x5e, 0xbe, 0x5b, 0x02, 0x09, 0xbf,
  0xc8, 0x8e, 0xe6, 0xbd, 0x14, 0x68, 0x99, 0x3d, 0x73, 0xa7, 0x31, 0xbf,
  0xc6, 0x40, 0xa0, 0x3c, 0x05, 0xbc, 0x62, 0xbd, 0x9e, 0x90, 0x50, 0x3d,
  0xbc, 0xf5, 0x18, 0x3f, 0x99, 0x23, 0x96, 0xbc, 0xfa, 0xb1, 0xbd, 0x3c,
  0x26, 0x1e, 0xc2, 0xbd, 0x09, 0x22, 0x86, 0x3e, 0x8a, 0xf8, 0xaf, 0x3c,
  0xac, 0x5f, 0x62, 0xbe, 0xa7, 0xb8, 0x3c, 0x3e, 0xfe, 0xcc, 0x64, 0x3d,
  0x28, 0x25, 0xdc, 0xbc, 0x86, 0x03, 0x02, 0x3f, 0x9e, 0xe2, 0x27, 0x3e,
  0x1a, 0xca, 0xde, 0xbd, 0x8d, 0x14, 0x35, 0x3d, 0xd7, 0x4c, 0xbe, 0xbe,
  0xe8, 0x47, 0xab, 0x3c, 0x06, 0x7d, 0x7d, 0x3e, 0xe2, 0x4f, 0x43, 0xbd,
  0x9d, 0xee, 0x36, 0xbd, 0x78, 0xb6, 0xfa, 0xbd, 0x11, 0x77, 0x9d, 0x3e,
  0xa4, 0xd2, 0x2f, 0xbd, 0x4e, 0x56, 0xa6, 0xbd, 0xfa, 0xfc, 0x7c, 0x3e,
  0x48, 0x29, 0x85, 0x3d, 0x86, 0x43, 0xcf, 0xbe, 0xfd, 0x7a, 0x06, 0x3f,
  0xf2, 0x80, 0x21, 0xbd, 0x8b, 0xfe, 0x67, 0xbd, 0xd5, 0x52, 0x46, 0xbd,
  0xa5, 0x1a, 0x96, 0xbd, 0xc2, 0xd5, 0x2b, 0xbd, 0x4e, 0x5a, 0x62, 0x3e,
  0x0c, 0x9a, 0x81, 0x3d, 0x61, 0x41, 0x6d, 0x3d, 0x9a, 0xf9, 0x2d, 0xbe,
  0xbd, 0x40, 0xfa, 0x3d, 0x50, 0xde, 0xec, 0xbd, 0xad, 0x96, 0x94, 0xbd,
  0xe3, 0x16, 0xa2, 0xbd, 0xf0, 0xc3, 0x70, 0xbd, 0x68, 0xca, 0x3e, 0x3e,
  0x19, 0x85, 0x1c, 0x3e, 0x85, 0x09, 0xb5, 0x3d, 0xe3, 0x17, 0x85, 0xbd,
  0xe9, 0x6e, 0x0d, 0xbe, 0x16, 0x99, 0xe4, 0xbd, 0x79, 0xd1, 0x6c, 0xbd,
  0xd9, 0x12, 0xb7, 0x3b, 0x57, 0xf1, 0x02, 0x3e, 0x28, 0x8f, 0x87, 0xbe,
  0x20, 0x24, 0xc1, 0xbd, 0x1a, 0x26, 0x3d, 0xbe, 0xfb, 0xc3, 0x16, 0xbd,
  0xc9, 0x93, 0xc4, 0xbd, 0xe7, 0x33, 0x14, 0x3e, 0xcb, 0x9e, 0xa8, 0x3d,
  0x20, 0x5e, 0x7a, 0xbe, 0x02, 0x96, 0xad, 0xbd, 0x10, 0x97, 0x01, 0x3e,
  0x4d, 0xcc, 0x08, 0xbd, 0xd6, 0x6b, 0x5f, 0xbe, 0x09, 0x0d, 0x3f, 0xbd,
  0xa4, 0x61, 0x48, 0xbe, 0xa3, 0xc3, 0xed, 0xbd, 0x6f, 0x3e, 0x44, 0xbe,
  0x6e, 0x7f, 0x08, 0x3e, 0xf9, 0x79, 0x7a, 0xbb, 0x0b, 0x4e, 0x39, 0xbe,
  0x84, 0xf5, 0x92, 0x3d, 0x29, 0xd3, 0x80, 0xbe, 0x39, 0x25, 0x13, 0x3e,
  0x03, 0x76, 0xc5, 0x3e, 0x0c, 0xe1, 0xc6, 0x3d, 0x70, 0xf3, 0x4c, 0x3a,
  0x39, 0x86, 0x8b, 0x3d, 0xdd, 0x9d, 0xbb, 0x3d, 0x3a, 0x7f, 0x02, 0xbe,
  0x22, 0x60, 0x0c, 0xbe, 0x3c, 0xb5, 0xc9, 0xbd, 0x5f, 0xf6, 0x08, 0xbe,
  0x9a, 0x58, 0xc8, 0xbd, 0xf7, 0xbd, 0xac, 0x3d, 0x83, 0xa0, 0x24, 0x3d,
  0x25, 0x90, 0x6f, 0xbd, 0x7c, 0x18, 0xf7, 0x3d, 0xf1, 0x88, 0xe2, 0xbd,
  0xeb, 0x1e, 0xc3, 0xbd, 0xfa, 0xc1, 0xc2, 0x3d, 0xae, 0xc1, 0xc2, 0xbd,
  0xd3, 0x0b, 0x48, 0xbb, 0xd7, 0xe3, 0x02, 0xbe, 0xd1, 0xd4, 0xf2, 0x3d,
  0x0c, 0x1d, 0x30, 0x3d, 0x5f, 0x78, 0x21, 0xbe, 0x03, 0xaf, 0x16, 0x3d,
  0x72, 0x99, 0x0e, 0x3e, 0x3b, 0x65, 0xd0, 0xbc, 0xce, 0x52, 0xed, 0xbc,
  0x41, 0xa3, 0xd5, 0xbd, 0x9a, 0x83, 0x80, 0x3d, 0x4b, 0x0f, 0x0f, 0xbd,
  0xfe, 0x50, 0x9c, 0x3d, 0x19, 0x64, 0xe9, 0xbd, 0x0d, 0x6d, 0x55, 0xbe,
  0xd0, 0x72, 0x79, 0xbd, 0x7b, 0xd4, 0x41, 0x3e, 0xb8, 0x3b, 0xff, 0x3d,
  0x4d, 0xfc, 0xf5, 0xbc, 0x27, 0x4d, 0x4f, 0xbd, 0x6c, 0x83, 0x7e, 0x3c,
  0x60, 0x87, 0xbd, 0xbd, 0x20, 0x60, 0x65, 0xbe, 0xc6, 0xf8, 0xf2, 0xbc,
  0x4c, 0xcc, 0x06, 0xbe, 0x38, 0x27, 0x22, 0xbe, 0x37, 0xeb, 0xb9, 0x3d,
  0x33, 0x22, 0x40, 0xbd, 0x97, 0x22, 0x00, 0x3c, 0xe2, 0x56, 0x3b, 0x3e,
  0xc0, 0x65, 0xa6, 0x3d, 0x1f, 0x5a, 0xcc, 0xbc, 0xc8, 0xa9, 0x9f, 0xbd,
  0x77, 0x16, 0x22, 0x3e, 0xad, 0x02, 0x86, 0xbe, 0xa0, 0x6c, 0x94, 0x3d,
  0xb7, 0xfd, 0xe1, 0x3b, 0x96, 0x4f, 0xa1, 0xbd, 0x78, 0x4f, 0x1f, 0xbe,
  0x9a, 0x44, 0x06, 0xbe, 0x29, 0x1a, 0xf0, 0xbb, 0xbd, 0x67, 0x0d, 0x3d,
  0xe7, 0x84, 0x8e, 0xbc, 0x69, 0xbb, 0x39, 0x3d, 0xb5, 0x2a, 0x9d, 0x3c,
  0x36, 0x0a, 0x96, 0x3c, 0x19, 0x1e, 0x89, 0xbe, 0x13, 0x3a, 0xe5, 0xbd,
  0x17, 0xea, 0x02, 0xbe, 0x7e, 0x2a, 0xf6, 0x3d, 0xe2, 0xe7, 0x70, 0xba,
  0xa4, 0xbe, 0x54, 0xbd, 0xf9, 0x0f, 0x8d, 0xbd, 0x2c, 0xd5, 0xbf, 0x3c,
  0x72, 0xfa, 0xfc, 0xbc, 0x9d, 0xf3, 0x34, 0xbd, 0x36, 0x66, 0x04, 0xbe,
  0x35, 0x55, 0x6c, 0xbd, 0x79, 0x83, 0x04, 0xbd, 0x38, 0x86, 0x04, 0xbc,
  0x14, 0xec, 0x76, 0x3c, 0xf4, 0x30, 0x31, 0xbe, 0x94, 0x0a, 0x2a, 0x3d,
  0x8f, 0x30, 0xcd, 0x3d, 0x87, 0x66, 0xf8, 0x3c, 0x4f, 0x70, 0x6b, 0xbd,
  0xf9, 0x81, 0x86, 0xbe, 0xae, 0x79, 0xd1, 0xbe, 0xf3, 0x67, 0xd4, 0x3d,
  0xe4, 0x2c, 0x1f, 0xbe, 0x87, 0x15, 0xd0, 0x3d, 0x39, 0x4d, 0x9e, 0xbe,
  0xd3, 0x3c, 0xe5, 0xbe, 0xf8, 0xfc, 0xfa, 0xbd, 0x06, 0x21, 0x09, 0x3e,
  0xa4, 0x31, 0xd4, 0xbd, 0xc9, 0x9f, 0x9d, 0x3c, 0xc1, 0xdd, 0x4f, 0xbd,
  0x81, 0xf9, 0x38, 0x3d, 0x88, 0xf5, 0x2d, 0x3e, 0xc0, 0x7f, 0x3b, 0xbc,
  0xe1, 0x3b, 0x6b, 0xbe, 0xe7, 0x13, 0x37, 0x3d, 0xc9, 0xff, 0x37, 0xbe,
  0x50, 0x7a, 0x7b, 0x3d, 0xfd, 0xa9, 0x8a, 0xbd, 0xc2, 0xa2, 0x87, 0x3e,
  0x86, 0x2f, 0xbe, 0xbe, 0x1e, 0x71, 0xa1, 0xbe, 0x46, 0x7c, 0xf0, 0x3b,
  0xac, 0x26, 0x68, 0x3e, 0xa4, 0x97, 0x9c, 0x3d, 0x16, 0x4b, 0x54, 0xbd,
  0xf1, 0x6e, 0x9e, 0x3d, 0x3b, 0x1d, 0xf0, 0x3c, 0xe6, 0x7d, 0x75, 0x3e,
  0x44, 0xe4, 0x70, 0xbe, 0x5c, 0xd5, 0x1c, 0xbf, 0x30, 0x33, 0x1e, 0x3d,
  0x60, 0x96, 0xb8, 0xbe, 0x00, 0xd0, 0x1b, 0x3e, 0x65, 0xeb, 0x1c, 0xbe,
  0x6a, 0xa3, 0x29, 0xbc, 0xd0, 0x16, 0x9f, 0xbe, 0x79, 0x14, 0x72, 0xbe,
  0x21, 0x1a, 0x8a, 0xbe, 0xb5, 0x16, 0xcb, 0x3e, 0xaa, 0x6a, 0xe8, 0x3d,
  0x04, 0xaa, 0xed, 0x3d, 0x0a, 0x07, 0x99, 0x3d, 0x85, 0xc4, 0x41, 0x3e,
  0x3a, 0x1b, 0x73, 0x3f, 0xf3, 0xe9, 0xb6, 0xbd, 0xd1, 0xf0, 0xb9, 0xbe,
  0x45, 0xca, 0x67, 0x3d, 0x70, 0xa7, 0x34, 0xbe, 0x4b, 0xfc, 0x3b, 0x3e,
  0xba, 0x87, 0x29, 0xbe, 0x2d, 0x5e, 0x3d, 0x3e, 0x16, 0x80, 0x61, 0xbc,
  0xe6, 0x60, 0x95, 0x3e, 0x9f, 0x03, 0xae, 0xbe, 0x49, 0xce, 0x49, 0x3e,
  0xe9, 0x17, 0x96, 0x3e, 0x55, 0x39, 0x28, 0x3e, 0x18, 0x6d, 0x76, 0x3e,
  0xa1, 0xae, 0x34, 0x3c, 0xc7, 0x63, 0xbe, 0xbe, 0xda, 0x49, 0x53, 0x3e,
  0xf5, 0x2c, 0xd8, 0xbe, 0x30, 0x11, 0x88, 0x3e, 0x8c, 0xed, 0xb9, 0xbe,
  0x11, 0xc5, 0x35, 0x3e, 0x82, 0x58, 0x4b, 0xbe, 0xc6, 0xa0, 0xb5, 0xbd,
  0xaa, 0x84, 0xf6, 0xbe, 0xb3, 0xb5, 0x71, 0xbd, 0x3f, 0x2e, 0x9b, 0xbe,
  0x39, 0x3f, 0x26, 0x3e, 0x98, 0x20, 0x80, 0x3d, 0xb4, 0x36, 0x66, 0x3e,
  0xfd, 0xba, 0x23, 0x3e, 0x96, 0xa9, 0x87, 0x3d, 0x71, 0xed, 0x45, 0xbd,
  0x04, 0x8c, 0x50, 0xbd, 0x46, 0xb9, 0x3d, 0xbd, 0x3a, 0x8c, 0x02, 0x3e,
  0x5f, 0x5f, 0xad, 0xbe, 0xbd, 0x1c, 0x95, 0x3e, 0xdf, 0xac, 0x85, 0xbe,
  0xda, 0xe4, 0x4f, 0x3e, 0xac, 0x45, 0x06, 0xbf, 0x49, 0x53, 0xd2, 0xbd,
  0x8d, 0xa0, 0x8f, 0xbd, 0x7e, 0x68, 0x01, 0x3e, 0x64, 0x2a, 0x1a, 0x3d,
  0x05, 0x0f, 0x83, 0x3d, 0x3e, 0x80, 0x86, 0x3e, 0xce, 0x6e, 0x44, 0xbd,
  0x0e, 0xac, 0x4b, 0x3f, 0x67, 0xd3, 0xf4, 0xbd, 0xa8, 0x72, 0xe8, 0xbe,
  0x41, 0x83, 0x8e, 0x3c, 0x5a, 0x20, 0x44, 0xbf, 0x28, 0xdf, 0xf9, 0x3d,
  0xfb, 0xe4, 0xdd, 0xbe, 0xd6, 0x8c, 0xcc, 0x3c, 0x1c, 0x97, 0x08, 0xbf,
  0xac, 0x70, 0x62, 0xba, 0x55, 0xcc, 0x9a, 0xbe, 0xea, 0x68, 0xc8, 0x3e,
  0x4b, 0xf0, 0x18, 0x3e, 0xb8, 0x99, 0x87, 0xbe, 0x6d, 0xbd, 0x52, 0xbc,
  0x5c, 0xa2, 0x57, 0xbc, 0x54, 0xc3, 0x33, 0xbe, 0x57, 0x3c, 0x04, 0xbe,
  0x2b, 0x32, 0x6a, 0xbe, 0xac, 0x26, 0x15, 0x3d, 0x18, 0x87, 0x8a, 0x3c,
  0xe2, 0xb6, 0x96, 0xbe, 0x15, 0x20, 0x23, 0x3d, 0x99, 0xd3, 0xe4, 0x3e,
  0x52, 0x15, 0xf0, 0xbd, 0xcb, 0x35, 0xa8, 0x3d, 0xc8, 0xb0, 0x0f, 0x3e,
  0x3b, 0x67, 0xec, 0xbe, 0x0f, 0x46, 0x18, 0xbe, 0xf3, 0x3f, 0x05, 0xbf,
  0xd8, 0xa9, 0xf6, 0x3e, 0xdb, 0xa1, 0x36, 0xbf, 0x04, 0x10, 0x87, 0x3e,
  0xf1, 0x72, 0x0d, 0xbe, 0xaf, 0x42, 0x1a, 0x3e, 0x78, 0xbd, 0x85, 0xb9,
  0x6a, 0xf3, 0x9a, 0xbb, 0xe1, 0x9d, 0xa3, 0xbe, 0x1b, 0xf4, 0x49, 0x3e,
  0x11, 0x54, 0xca, 0x3e, 0x02, 0x09, 0xfe, 0x3d, 0x5d, 0x97, 0x08, 0xbe,
  0xec, 0x47, 0x10, 0x3e, 0x53, 0xa2, 0x82, 0x3e, 0xe1, 0xb9, 0x14, 0x3e,
  0xf0, 0x2a, 0xb3, 0xbe, 0x5e, 0x13, 0x20, 0x3f, 0x51, 0x41, 0xbc, 0xbe,
  0x8b, 0x81, 0xf9, 0xbe, 0xb1, 0xe1, 0x4f, 0xbe, 0x38, 0x7f, 0xd5, 0x3e,
  0xae, 0x58, 0x62, 0xbf, 0x75, 0x8e, 0x12, 0x3d, 0x11, 0x86, 0x66, 0xbc,
  0x03, 0x7a, 0xdc, 0x3d, 0x7a, 0xfa, 0xf7, 0x3e, 0x5b, 0x8d, 0x13, 0x3e,
  0x96, 0xf1, 0xba, 0x3d, 0x95, 0x12, 0x8a, 0x3d, 0xc6, 0xdb, 0x90, 0x3e,
  0xb2, 0xce, 0x51, 0x3e, 0xfd, 0x9b, 0x25, 0xbe, 0xff, 0x73, 0x25, 0x3f,
  0xf0, 0x05, 0x79, 0xbd, 0x13, 0x3c, 0x01, 0xbf, 0xec, 0xd0, 0xf1, 0xbe,
  0x21, 0xd2, 0xa6, 0x3e, 0xa6, 0x3b, 0xcb, 0xbe, 0x84, 0x27, 0x82, 0xbb,
  0x76, 0x43, 0xf9, 0x3d, 0x30, 0x9f, 0xe7, 0x3d, 0x31, 0x90, 0xb9, 0x3e,
  0x13, 0x7d, 0x37, 0x3e, 0xb0, 0xd8, 0x7c, 0xbd, 0x91, 0x02, 0x8f, 0x3c,
  0xde, 0x43, 0x6a, 0x3e, 0xf2, 0x85, 0xef, 0x3d, 0x0b, 0x93, 0xdc, 0xbd,
  0x10, 0xaf, 0xc1, 0x3e, 0xee, 0x20, 0xf8, 0xbd, 0x83, 0x37, 0x1b, 0xbf,
  0x07, 0x28, 0xd1, 0xbe, 0xfe, 0xb2, 0x12, 0xbd, 0x47, 0xe5, 0x6b, 0xbe,
  0x49, 0xa8, 0x0f, 0x3d, 0xeb, 0x69, 0x66, 0xbd, 0x0d, 0x92, 0xef, 0xbd,
  0xea, 0x2e, 0x33, 0x3f, 0x1b, 0xa5, 0xcb, 0x3d, 0x47, 0xe7, 0xbb, 0x3d,
  0x62, 0x2e, 0x8e, 0x3c, 0xac, 0x83, 0x9d, 0x3e, 0x76, 0x41, 0x23, 0x3e,
  0x5c, 0xa8, 0xb3, 0x3c, 0xe0, 0xb5, 0x39, 0x3f, 0x53, 0x04, 0x9a, 0xbe,
  0x03, 0xfa, 0x06, 0xbf, 0x07, 0x16, 0x09, 0xbf, 0xe2, 0xd6, 0x41, 0x3e,
  0xfa, 0xb9, 0x26, 0xbe, 0x64, 0x0d, 0x10, 0x3d, 0xc6, 0x43, 0x8d, 0xbe,
  0xeb, 0xe8, 0x1e, 0xbe, 0x6a, 0xd5, 0xe0, 0x3c, 0xc0, 0x4d, 0x71, 0xbe,
  0x88, 0xaf, 0xdc, 0xbd, 0xce, 0x72, 0xd6, 0x3d, 0xc9, 0xd5, 0x99, 0x3d,
  0x72, 0xcb, 0x23, 0xbd, 0xe1, 0xcf, 0x20, 0xbe, 0x99, 0x03, 0xcd, 0x3e,
  0x18, 0x93, 0xd8, 0xbe, 0x53, 0xe1, 0x18, 0xbf, 0x28, 0x3d, 0x20, 0xbe,
  0xa2, 0x2a, 0x84, 0x3e, 0x8f, 0x32, 0x18, 0xbf, 0xa0, 0x76, 0xf8, 0x3c,
  0x3b, 0xa4, 0x23, 0xbe, 0x13, 0xe1, 0xf8, 0xbd, 0x6d, 0xe7, 0x43, 0xbe,
  0x27, 0xa3, 0x19, 0x3d, 0x62, 0xee, 0x89, 0x3d, 0x00, 0x0f, 0xb9, 0x3d,
  0x27, 0x32, 0xcb, 0xbd, 0x8f, 0x77, 0xa2, 0xbc, 0x70, 0x64, 0x46, 0xbd,
  0x05, 0xd4, 0x91, 0x3e, 0xec, 0xcb, 0xfb, 0x3b, 0xac, 0xe8, 0xa2, 0x3e,
  0x15, 0x4f, 0xcd, 0x3d, 0xb8, 0xdc, 0xe1, 0x3d, 0x5c, 0xe0, 0x8f, 0xbe,
  0x1e, 0xb4, 0xae, 0x3d, 0x35, 0x82, 0x31, 0xbe, 0x4e, 0x5d, 0x99, 0x3c,
  0x60, 0x5f, 0xe8, 0x3e, 0x48, 0xb0, 0x66, 0xbe, 0xaf, 0x3c, 0xec, 0x3d,
  0x40, 0x04, 0x2f, 0x3e, 0xff, 0xdd, 0x4d, 0xbe, 0x8e, 0x5c, 0xa6, 0xbd,
  0x3f, 0x6e, 0x12, 0xbf, 0xef, 0xbd, 0x8c, 0x3e, 0xcc, 0xfe, 0x7c, 0xbe,
  0x60, 0x5a, 0x4a, 0x3e, 0xe4, 0x28, 0x72, 0x3e, 0xd4, 0x28, 0x82, 0x3d,
  0xe7, 0xfe, 0xc7, 0xbd, 0x05, 0xd3, 0x1a, 0x3e, 0x1d, 0xc7, 0x2e, 0xbe,
  0x58, 0xd7, 0xb9, 0xbd, 0x3a, 0x15, 0xe6, 0x3e, 0xf8, 0x69, 0x97, 0xbc,
  0x78, 0x83, 0xd9, 0x3c, 0xec, 0x9f, 0xba, 0x3d, 0x10, 0x3b, 0xf8, 0x3e,
  0x6c, 0xea, 0x80, 0x3d, 0xca, 0x7b, 0x94, 0xbe, 0x46, 0x93, 0x61, 0x3e,
  0x19, 0x54, 0x67, 0xbd, 0x14, 0xb9, 0x51, 0x3d, 0x7c, 0x08, 0x83, 0xbe,
  0x2e, 0x46, 0x9a, 0x3e, 0x18, 0x12, 0xa7, 0xbe, 0xdd, 0xe1, 0xf4, 0x3c,
  0xf2, 0x8e, 0xc6, 0x3d, 0x1a, 0xa7, 0x03, 0xbd, 0xc5, 0x71, 0x00, 0x3f,
  0xab, 0xe0, 0xf1, 0xbd, 0xa8, 0x41, 0x28, 0x3e, 0xb6, 0x82, 0xe9, 0x3c,
  0x6e, 0x4e, 0x23, 0x3f, 0x86, 0xf5, 0x18, 0x3e, 0xb4, 0x5d, 0xed, 0xbc,
  0xd7, 0x01, 0xfb, 0x3e, 0xdf, 0xd4, 0x16, 0x3c, 0xe0, 0x99, 0x2c, 0xbf,
  0x5f, 0x51, 0x4e, 0x3e, 0x8c, 0x6d, 0xb3, 0x3d, 0xc3, 0xe2, 0x35, 0xbe,
  0x75, 0x4b, 0x76, 0x3d, 0x6c, 0xb0, 0xab, 0x3e, 0x2a, 0x9c, 0x25, 0xbe,
  0x2e, 0xe3, 0xc6, 0x3e, 0x90, 0x89, 0x20, 0x3e, 0x78, 0xae, 0x05, 0x3e,
  0xca, 0x47, 0x00, 0x3e, 0xd1, 0xd2, 0x0e, 0x3f, 0xe4, 0x1a, 0x51, 0x3e,
  0x80, 0x3a, 0xca, 0xbb, 0x02, 0xb6, 0x32, 0x3e, 0xf5, 0x7e, 0xc7, 0x3d,
  0xb6, 0x9e, 0xfc, 0xbe, 0x3c, 0x0c, 0xb8, 0x3e, 0x5d, 0xa0, 0xa8, 0x3e,
  0xaa, 0xb7, 0xa3, 0xbd, 0xa8, 0xd7, 0xcb, 0x3c, 0x24, 0xb8, 0x31, 0xbe,
  0xf7, 0xec, 0x9a, 0xbe, 0x0a, 0x64, 0x07, 0x3e, 0x4f, 0x8f, 0x85, 0xbd,
  0x41, 0x3d, 0xae, 0xba, 0x04, 0x07, 0x93, 0x3d, 0xcf, 0xe8, 0xc1, 0x3e,
  0xe6, 0x04, 0xa9, 0x3d, 0x51, 0x48, 0x82, 0xbd, 0x84, 0x4c, 0xa3, 0xbd,
  0x02, 0x4f, 0x22, 0xbe, 0x3d, 0x7a, 0x81, 0xbe, 0xdf, 0x9c, 0x39, 0xbe,
  0x12, 0xde, 0x5d, 0x3d, 0x2b, 0x18, 0x3b, 0xbe, 0xb3, 0x6c, 0x41, 0x3d,
  0x96, 0x55, 0x51, 0x3d, 0x46, 0xa7, 0x79, 0xbe, 0x16, 0x3d, 0xb3, 0x3e,
  0x23, 0x8c, 0x9e, 0xbe, 0x6c, 0x26, 0xfa, 0xbc, 0x8e, 0x59, 0x9b, 0x3c,
  0x13, 0xa0, 0xc4, 0x3e, 0x2f, 0x34, 0x0c, 0xbd, 0xbb, 0x2c, 0x30, 0xbe,
  0x7c, 0xe4, 0x88, 0x3e, 0xa1, 0xda, 0xff, 0xbd, 0xda, 0xbd, 0x18, 0xbf,
  0x5a, 0x6d, 0xf0, 0xbd, 0xfb, 0x8b, 0x62, 0x3e, 0xd9, 0x3b, 0x4f, 0xbe,
  0xda, 0x42, 0xa0, 0xbb, 0x23, 0xa9, 0x6f, 0xbe, 0x7d, 0x03, 0x8b, 0xbc,
  0xb3, 0x9c, 0x23, 0xbe, 0xf1, 0xf1, 0x2f, 0xbc, 0x63, 0xd1, 0x89, 0x3c,
  0xf8, 0x16, 0x23, 0xbb, 0x47, 0xef, 0xdb, 0x3d, 0xee, 0xa0, 0xa6, 0x3c,
  0x9e, 0x70, 0x35, 0xbe, 0xad, 0x83, 0x74, 0x3e, 0x48, 0x9e, 0xfd, 0x3b,
  0x29, 0x7a, 0x02, 0x3e, 0x41, 0x48, 0x51, 0x3e, 0x9d, 0xaa, 0xf1, 0x3d,
  0xa1, 0x61, 0xe1, 0xbe, 0xf3, 0xc3, 0xf8, 0xbc, 0x42, 0xbb, 0x86, 0x3d,
  0xce, 0x36, 0x79, 0x3d, 0xd2, 0xaa, 0xe0, 0xbc, 0x84, 0x8b, 0x4d, 0xbd,
  0x65, 0x7d, 0x11, 0x3c, 0x2c, 0xeb, 0x14, 0xbe, 0x81, 0xe1, 0x19, 0x3e,
  0x1c, 0x24, 0x15, 0x3d, 0xf5, 0x7d, 0xe5, 0x3d, 0x49, 0xac, 0x4f, 0xbd,
  0xb2, 0x0f, 0x95, 0x3d, 0x0f, 0x84, 0xf1, 0xbd, 0x09, 0x23, 0xd7, 0x3e,
  0x57, 0x49, 0xe5, 0x3d, 0xa0, 0x8e, 0x9a, 0xbb, 0x7c, 0x52, 0x57, 0xbc,
  0xb6, 0x81, 0x9f, 0x3c, 0x1a, 0xcb, 0x10, 0x3d, 0x48, 0xca, 0xde, 0xbe,
  0xc3, 0x6d, 0x8b, 0x3d, 0xe6, 0x6b, 0xcf, 0xbd, 0x07, 0x72, 0xf5, 0xbd,
  0x8c, 0xfa, 0x10, 0xbe, 0x45, 0x1d, 0x7c, 0xbe, 0x14, 0xb2, 0x0e, 0x3e,
  0x0e, 0xd5, 0x13, 0xbd, 0x3d, 0xd3, 0xa0, 0x3d, 0xb7, 0x3c, 0x4c, 0x3e,
  0x00, 0x34, 0x10, 0x3e, 0x9f, 0x38, 0xfa, 0x3d, 0xa0, 0x2c, 0x78, 0xbd,
  0x7a, 0x91, 0x72, 0x3b, 0x0b, 0xf0, 0xa5, 0x3d, 0xd7, 0xaf, 0xc8, 0x3c,
  0x3e, 0xf0, 0x9e, 0xbe, 0x15, 0x55, 0xad, 0x3d, 0xcb, 0x00, 0xf7, 0x3d,
  0x1a, 0xe3, 0x94, 0xbc, 0x77, 0x88, 0x2a, 0xbf, 0xef, 0x76, 0x05, 0xbf,
  0xbb, 0xe8, 0xcc, 0x3d, 0x5d, 0x3e, 0x33, 0xbd, 0x41, 0x2a, 0x0c, 0xbf,
  0xae, 0x98, 0xd7, 0xbc, 0x4e, 0x38, 0x61, 0xbe, 0x48, 0xd7, 0xfc, 0x3d,
  0x94, 0x48, 0x0b, 0xbd, 0xcd, 0xd2, 0x03, 0x3a, 0x56, 0x82, 0x62, 0xbe,
  0x8f, 0xd3, 0xd6, 0x3c, 0x64, 0xb8, 0x38, 0xbe, 0x84, 0x23, 0xb9, 0xbc,
  0xf5, 0xe7, 0x8e, 0x3a, 0xe7, 0x31, 0xe5, 0xbd, 0x14, 0xb4, 0xd8, 0xbe,
  0x1c, 0x74, 0x13, 0xbe, 0x66, 0x5c, 0x44, 0x3d, 0xe1, 0x4e, 0x0b, 0x3d,
  0xde, 0xbb, 0x8b, 0xbe, 0x4b, 0x92, 0x3b, 0xbe, 0xef, 0xc3, 0x03, 0xbe,
  0x7a, 0x26, 0xf9, 0x3d, 0x3e, 0xbc, 0xc7, 0xbd, 0x1d, 0xb5, 0x08, 0x3b,
  0xf2, 0xdd, 0x67, 0x3c, 0x7d, 0x34, 0x57, 0x3d, 0x6c, 0x23, 0x59, 0x3e,
  0x1f, 0x3d, 0x9f, 0x3d, 0xfa, 0xc4, 0x63, 0x3d, 0x28, 0x4f, 0xcf, 0xbc,
  0xed, 0xc4, 0x76, 0xbe, 0x6e, 0x91, 0x80, 0xbe, 0x47, 0x8a, 0xff, 0x3b,
  0xa3, 0x6b, 0x6b, 0x3e, 0x52, 0xe3, 0xa4, 0x3d, 0xeb, 0xe7, 0x22, 0xbe,
  0x2a, 0xa3, 0x42, 0x3f, 0x17, 0xb1, 0x1f, 0x3c, 0x3e, 0x4f, 0xc6, 0xbc,
  0x7e, 0xf1, 0x47, 0xbc, 0xd1, 0x56, 0x7d, 0xbd, 0x7d, 0x65, 0x27, 0x3d,
  0x20, 0x53, 0x1a, 0x3e, 0xf1, 0x4a, 0x94, 0x3c, 0x49, 0xc2, 0xe7, 0xb9,
  0xc1, 0x2e, 0x94, 0xbd, 0xb6, 0xd0, 0x40, 0xbd, 0xe5, 0xf1, 0xcc, 0xbd,
  0x28, 0x96, 0xee, 0x3c, 0xbc, 0xa2, 0x6f, 0x3d, 0xf8, 0xed, 0x56, 0x3d,
  0xf5, 0x67, 0xd6, 0x3d, 0x9e, 0x1a, 0x02, 0x3f, 0xc5, 0xf6, 0xf6, 0x3c,
  0x9b, 0x8a, 0xe3, 0x3d, 0x72, 0xe2, 0xd4, 0xbc, 0xdc, 0x42, 0x2e, 0x3d,
  0xd7, 0x5a, 0x57, 0x3b, 0x8d, 0x13, 0x11, 0x3e, 0x45, 0x37, 0x99, 0xbc,
  0x84, 0xa0, 0x08, 0xbe, 0xe8, 0x74, 0x58, 0xbd, 0x1c, 0x13, 0xbd, 0x3d,
  0x65, 0x59, 0x22, 0x3d, 0xd3, 0x2e, 0x09, 0x3c, 0x14, 0x08, 0x5f, 0xbe,
  0xdd, 0xd6, 0xf1, 0x3c, 0x5e, 0x1e, 0x3e, 0xbe, 0xd1, 0xc7, 0x30, 0xbd,
  0x13, 0x8f, 0xf6, 0x3d, 0xe0, 0x7d, 0xe2, 0x3d, 0xf4, 0xbf, 0x96, 0xbe,
  0xcd, 0xb1, 0xa2, 0xbe, 0x6c, 0x23, 0x8e, 0xbe, 0x64, 0xf7, 0x36, 0xbe,
  0x49, 0xd6, 0x37, 0x3e, 0x74, 0x43, 0xbe, 0xbb, 0xe0, 0x6a, 0x81, 0xbd,
  0x3c, 0x5c, 0x89, 0xbe, 0xcd, 0xfe, 0x04, 0x3e, 0xcc, 0xc9, 0xf7, 0xbd,
  0xe5, 0x7e, 0x6d, 0xbe, 0x3f, 0xda, 0x95, 0x3d, 0x1f, 0x44, 0x62, 0xbe,
  0x79, 0x57, 0x2c, 0xbe, 0x85, 0x2c, 0xb4, 0xbd, 0x50, 0x40, 0xad, 0xbd,
  0xe8, 0x6e, 0x80, 0xbe, 0xea, 0x67, 0x09, 0xbf, 0x13, 0x4b, 0xda, 0xbd,
  0xeb, 0x41, 0x14, 0xbe, 0x35, 0x94, 0xd1, 0xbd, 0x3d, 0x8d, 0x95, 0x3e,
  0x12, 0x85, 0x47, 0x3d, 0x98, 0x3b, 0xde, 0xbe, 0xa3, 0xc9, 0x98, 0x3d,
  0xda, 0x72, 0xe2, 0xbe, 0x44, 0x99, 0xa0, 0xbe, 0x02, 0x68, 0x9f, 0x3e,
  0x41, 0x88, 0x6f, 0x3e, 0xf7, 0x4d, 0x81, 0xbd, 0xe9, 0xb2, 0x23, 0xbd,
  0xe6, 0xd9, 0xd6, 0x3d, 0xd2, 0xda, 0x51, 0xbe, 0x87, 0x29, 0x95, 0xbe,
  0x6a, 0xb4, 0x42, 0xbe, 0x4a, 0x5f, 0xd7, 0xbe, 0x46, 0x20, 0x6e, 0xbd,
  0xc8, 0x60, 0x89, 0x3d, 0x15, 0x3e, 0x77, 0x3d, 0x61, 0x14, 0x1e, 0x3d,
  0x7c, 0xf3, 0xe1, 0xbd, 0x18, 0xec, 0xc7, 0xbd, 0xe2, 0xf3, 0x7c, 0xbd,
  0xc1, 0x74, 0xc5, 0x3e, 0x3f, 0x8f, 0x11, 0xbe, 0xa0, 0x77, 0x68, 0x3e,
  0x8c, 0x9f, 0xdd, 0x3d, 0x8a, 0xf7, 0xf0, 0x3d, 0xce, 0xf6, 0x7f, 0xbd,
  0x93, 0xb4, 0x01, 0xbd, 0xa4, 0x91, 0xa8, 0xbe, 0x35, 0xcc, 0xa9, 0xbd,
  0xff, 0xbd, 0x7f, 0x3c, 0xd7, 0xea, 0xaa, 0x3d, 0xa4, 0x80, 0xda, 0x3d,
  0xf7, 0x3e, 0x62, 0xbe, 0x84, 0x3f, 0xaf, 0xbd, 0x53, 0x21, 0x10, 0xbe,
  0x52, 0xcd, 0x97, 0xbd, 0x23, 0x90, 0x49, 0x3e, 0xbc, 0x40, 0x8c, 0x3d,
  0x99, 0x65, 0x43, 0xbd, 0xf8, 0x95, 0x1a, 0x3e, 0xe7, 0xdf, 0xc3, 0xbc,
  0x4f, 0x76, 0x2b, 0xbd, 0xaa, 0xdf, 0x9e, 0xbe, 0x7a, 0x6e, 0x2d, 0xbe,
  0xee, 0xa3, 0xbb, 0xbe, 0xaa, 0x08, 0x35, 0x3c, 0x00, 0x74, 0x10, 0x3d,
  0x0f, 0xac, 0x3a, 0xbb, 0xd9, 0x17, 0xa4, 0xbe, 0x27, 0xc2, 0x97, 0xbc,
  0xf9, 0x59, 0xb7, 0xbe, 0xf5, 0x53, 0x78, 0xbe, 0x96, 0xf0, 0x9f, 0x3e,
  0x40, 0xc9, 0xc5, 0xbd, 0xda, 0x7a, 0x4a, 0xbe, 0x1e, 0x76, 0xdb, 0xbc,
  0x08, 0x2e, 0x37, 0x3e, 0xf6, 0x05, 0x23, 0xbe, 0x3d, 0xc8, 0xb5, 0xbe,
  0x84, 0x13, 0x14, 0xbe, 0x3c, 0xf3, 0xc1, 0xbd, 0xd4, 0xb7, 0x9a, 0x3d,
  0xe8, 0x39, 0x3d, 0x3e, 0xa7, 0xef, 0xb6, 0xbd, 0xfe, 0x62, 0x66, 0xbe,
  0x04, 0xdb, 0xfa, 0x3d, 0x18, 0x27, 0xc5, 0xbe, 0x74, 0x59, 0x9c, 0x3c,
  0x3b, 0x08, 0xbc, 0x3d, 0x03, 0xd8, 0xe1, 0x3d, 0xea, 0xc7, 0x63, 0xbe,
  0x2e, 0x7a, 0xd9, 0xbd, 0xf5, 0x5f, 0x45, 0x3d, 0xb7, 0x27, 0x0b, 0xbc,
  0xe1, 0x33, 0x0e, 0xbe, 0x1a, 0xbd, 0x97, 0xbd, 0xb1, 0x92, 0x2b, 0x3d,
  0xc2, 0x0e, 0xc0, 0x3c, 0xb6, 0x20, 0xe0, 0xbd, 0x64, 0x26, 0x91, 0xbe,
  0x1d, 0x01, 0x0b, 0x3d, 0x75, 0xf4, 0x9c, 0x3d, 0x5f, 0x45, 0x84, 0x3c,
  0xa8, 0x69, 0xdd, 0xbd, 0x15, 0x4a, 0x0d, 0x3d, 0x9c, 0xa6, 0xb9, 0xbe,
  0x7d, 0x6e, 0x37, 0xbe, 0xb8, 0x56, 0x01, 0xbe, 0x15, 0xdc, 0x92, 0x3d,
  0x46, 0xfe, 0xff, 0xff, 0x10, 0x00, 0x00, 0x00, 0x05, 0x00, 0x00, 0x00,
  0x14, 0x00, 0x00, 0x00, 0x2c, 0x00, 0x00, 0x00, 0x02, 0x00, 0x00, 0x00,
  0x10, 0x00, 0x00, 0x00, 0x70, 0x00, 0x00, 0x00, 0x17, 0x00, 0x00, 0x00,
  0x73, 0x65, 0x71, 0x75, 0x65, 0x6e, 0x74, 0x69, 0x61, 0x6c, 0x2f, 0x64,
  0x65, 0x6e, 0x73, 0x65, 0x2f, 0x4d, 0x61, 0x74, 0x4d, 0x75, 0x6c, 0x00,
  0x34, 0xfe, 0xff, 0xff, 0x2a, 0xff, 0xff, 0xff, 0x04, 0x00, 0x00, 0x00,
  0x08, 0x00, 0x00, 0x00, 0xff, 0xff, 0xff, 0xff, 0x70, 0x00, 0x00, 0x00,
  0x00, 0x00, 0x0e, 0x00, 0x18, 0x00, 0x08, 0x00, 0x07, 0x00, 0x0c, 0x00,
  0x10, 0x00, 0x14, 0x00, 0x0e, 0x00, 0x00, 0x00, 0x00, 0x00, 0x00, 0x02,
  0x10, 0x00, 0x00, 0x00, 0x04, 0x00, 0x00, 0x00, 0x10, 0x00, 0x00, 0x00,
  0x2c, 0x00, 0x00, 0x00, 0x01, 0x00, 0x00, 0x00, 0x02, 0x00, 0x00, 0x00,
  0x18, 0x00, 0x00, 0x00, 0x73, 0x65, 0x71, 0x75, 0x65, 0x6e, 0x74, 0x69,
  0x61, 0x6c, 0x2f, 0x66, 0x6c, 0x61, 0x74, 0x74, 0x65, 0x6e, 0x2f, 0x43,
  0x6f, 0x6e, 0x73, 0x74, 0x00, 0x00, 0x00, 0x00, 0x9c, 0xfe, 0xff, 0xff,
  0x92, 0xff, 0xff, 0xff, 0x04, 0x00, 0x00, 0x00, 0x10, 0x00, 0x00, 0x00,
  0x16, 0x50, 0x56, 0xbf, 0xfa, 0x45, 0x94, 0xc0, 0xe5, 0x1b, 0x3b, 0xbf,
  0xea, 0xee, 0xe8, 0x3f, 0x0a, 0xff, 0xff, 0xff, 0x10, 0x00, 0x00, 0x00,
  0x03, 0x00, 0x00, 0x00, 0x10, 0x00, 0x00, 0x00, 0x3c, 0x00, 0x00, 0x00,
  0x01, 0x00, 0x00, 0x00, 0x04, 0x00, 0x00, 0x00, 0x29, 0x00, 0x00, 0x00,
  0x73, 0x65, 0x71, 0x75, 0x65, 0x6e, 0x74, 0x69, 0x61, 0x6c, 0x2f, 0x64,
  0x65, 0x6e, 0x73, 0x65, 0x5f, 0x31, 0x2f, 0x42, 0x69, 0x61, 0x73, 0x41,
  0x64, 0x64, 0x2f, 0x52, 0x65, 0x61, 0x64, 0x56, 0x61, 0x72, 0x69, 0x61,
  0x62, 0x6c, 0x65, 0x4f, 0x70, 0x00, 0x00, 0x00, 0x60, 0xff, 0xff, 0xff,
  0x00, 0x00, 0x06, 0x00, 0x08, 0x00, 0x04, 0x00, 0x06, 0x00, 0x00, 0x00,
  0x04, 0x00, 0x00, 0x00, 0x40, 0x00, 0x00, 0x00, 0xce, 0x4f, 0xa4, 0xbe,
  0x3e, 0xcf, 0xaf, 0xbe, 0x01, 0x05, 0xd1, 0xbe, 0x6a, 0x66, 0x0e, 0xbe,
  0x7b, 0xf3, 0xb3, 0xbe, 0x19, 0x03, 0x6f, 0xbf, 0x50, 0x91, 0xe5, 0xbd,
  0x81, 0x53, 0x90, 0xbf, 0xae, 0x9e, 0x87, 0xbc, 0x95, 0x6f, 0x89, 0x3f,
  0x60, 0xf8, 0x31, 0xbe, 0x5f, 0x51, 0xda, 0xbe, 0x06, 0x15, 0x38, 0x40,
  0x0e, 0x96, 0x95, 0x3f, 0x36, 0x20, 0xb8, 0xbf, 0x98, 0x80, 0xd2, 0x3e,
  0xae, 0xff, 0xff, 0xff, 0x10, 0x00, 0x00, 0x00, 0x02, 0x00, 0x00, 0x00,
  0x10, 0x00, 0x00, 0x00, 0x3c, 0x00, 0x00, 0x00, 0x01, 0x00, 0x00, 0x00,
  0x10, 0x00, 0x00, 0x00, 0x27, 0x00, 0x00, 0x00, 0x73, 0x65, 0x71, 0x75,
  0x65, 0x6e, 0x74, 0x69, 0x61, 0x6c, 0x2f, 0x64, 0x65, 0x6e, 0x73, 0x65,
  0x2f, 0x42, 0x69, 0x61, 0x73, 0x41, 0x64, 0x64, 0x2f, 0x52, 0x65, 0x61,
  0x64, 0x56, 0x61, 0x72, 0x69, 0x61, 0x62, 0x6c, 0x65, 0x4f, 0x70, 0x00,
  0x04, 0x00, 0x06, 0x00, 0x04, 0x00, 0x00, 0x00, 0x00, 0x00, 0x0e, 0x00,
  0x14, 0x00, 0x04, 0x00, 0x00, 0x00, 0x08, 0x00, 0x0c, 0x00, 0x10, 0x00,
  0x0e, 0x00, 0x00, 0x00, 0x10, 0x00, 0x00, 0x00, 0x01, 0x00, 0x00, 0x00,
  0x1c, 0x00, 0x00, 0x00, 0x2c, 0x00, 0x00, 0x00, 0x04, 0x00, 0x00, 0x00,
  0x01, 0x00, 0x00, 0x00, 0x40, 0x00, 0x00, 0x00, 0x03, 0x00, 0x00, 0x00,
  0x01, 0x00, 0x00, 0x00, 0x0c, 0x00, 0x00, 0x00, 0x63, 0x6f, 0x6e, 0x76,
  0x32, 0x64, 0x5f, 0x69, 0x6e, 0x70, 0x75, 0x74, 0x00, 0x00, 0x00, 0x00,
  0xfc, 0xff, 0xff, 0xff, 0x04, 0x00, 0x04, 0x00, 0x04, 0x00, 0x00, 0x00
};


unsigned int model_tflite_len = 12384;// Fill the int in `src/model.cc` here